, 382467988
. 362314661
the 336551598
and 233864934
to 210412990
of 209258462
a 165212266
in 152007738
- 100212669
for 90781971
is 89131935
on 74634502
with 63622136
you 59822183
that 58689122
) 53578371
( 49419800
The 46827599
I 46530991
as 45667701
at 45232154
it 44773811
or 43483939
are 41318316
: 40133105
be 39910152
by 39869120
from 37328162
! 37071138
? 35018726
your 35012916
an 34795815
this 30813831
have 29568474
" 29520170
’s 29315611
will 28272431
was 28213229
's 27075200
S@@ 25287238
can 24833250
B@@ 21864850
not 21379141
P@@ 21127032
s@@ 20963925
T@@ 20794748
has 20742620
all 20293005
C@@ 19477194
M@@ 19288241
R@@ 19181811
we 19081587
D@@ 19045542
; 18987726
our 18865267
more 18755527
L@@ 18659859
one 18271370
ing 18232964
F@@ 17428086
i 17240646
b@@ 17137419
p@@ 17067138
which 17058471
H@@ 16969073
s 16907550
ed 16801850
t@@ 16773200
about 16621762
G@@ 16562580
N@@ 16082603
their 16011366
but 15979585
in@@ 15830175
do 15540716
up 15471451
es 15351372
A 15287068
c@@ 15200852
e@@ 14842321
d@@ 14799182
K@@ 14623528
m@@ 14506895
out 14505918
ers 14473870
re@@ 14403319
er 14334700
y 14262450
y@@ 14099605
my 14035908
l@@ 13856885
A@@ 13795636
time 13660905
o 13656319
they 13569113
' 13558353
/ 13539301
1 13383445
W@@ 13332619
n@@ 13328163
t 13271636
h@@ 13194579
r@@ 13107912
g@@ 13061970
k@@ 13027315
his 12894229
al 12867058
2 12758580
who 12683330
us 12649782
f@@ 12581060
also 12338025
“ 12322679
E@@ 12288282
un@@ 12125754
new 12103592
i@@ 12089370
its 12066926
so 11991999
ation 11952916
” 11862184
.@@ 11840184
al@@ 11461443
he 11356469
V@@ 11352126
e 11265044
if 11265029
w@@ 11241782
like 11188813
This 10964408
been 10828811
other 10745780
ch@@ 10724513
er@@ 10679317
en@@ 10615928
– 10614984
an@@ 10507926
st@@ 10495576
3 10433768
O@@ 10430225
any 10343651
In 10309117
ate 10145549
a@@ 10069562
when 9953498
what 9941233
o@@ 9905563
would 9840307
& 9590354
J@@ 9584495
on@@ 9478061
some 9477969
We 9379624
get 9321871
over 9175318
how 9097125
were 9020905
there 8984111
use 8952312
-@@ 8951767
able 8870387
ar@@ 8852179
en 8794565
had 8787967
at@@ 8750860
I@@ 8739733
first 8683596
into 8572213
than 8563107
or@@ 8530908
4 8526510
v@@ 8526455
5 8497140
am@@ 8470116
just 8335660
It 8261927
make 8252123
es@@ 8245457
it@@ 8140649
el@@ 8131091
ated 8088548
work 8040056
them 8018350
ad@@ 7976964
her 7880689
said 7855373
u@@ 7853041
year 7803738
If 7778937
th@@ 7675399
me 7647977
only 7632866
well 7612288
$ 7578027
way 7564962
You 7402143
U@@ 7401032
ts 7345258
am 7331263
two 7323873
ly 7272868
after 7240961
n 7236196
people 7206193
most 7205725
m 7152112
no 7112297
as@@ 7034302
dis@@ 7024283
j@@ 6992662
em@@ 6964694
is@@ 6873724
k 6837934
through 6792490
Y@@ 6776746
now 6768896
What 6745153
day 6696051
ac@@ 6650826
ic 6540546
7 6525806
years 6498046
information 6443228
ent 6412777
where 6401831
ted 6362124
sh@@ 6358365
n’t 6317623
may 6292015
see 6289464
these 6287095
con@@ 6273575
ag@@ 6253190
E 6246725
here 6233453
6 6206861
S 6184703
x 6182596
need 6149697
ro@@ 6141495
el 6141299
In@@ 6053768
z@@ 6049374
back 6024443
Ch@@ 5982918
best 5924569
th 5900308
4@@ 5875879
then 5869619
id@@ 5864299
ab@@ 5856448
n't 5854948
ol@@ 5844796
ting 5841406
ic@@ 5819304
such 5808774
For 5793789
many 5792722
om@@ 5791600
very 5789766
3@@ 5757830
le@@ 5757291
d 5756444
ations 5734697
ant 5732546
help 5721977
g 5710027
10 5697614
8@@ 5665828
tr@@ 5658406
ating 5640402
made 5610267
ed@@ 5599813
take 5557804
could 5542786
8 5532294
should 5526077
ti@@ 5510280
used 5492959
2@@ 5487083
l 5483173
age 5476245
home 5464612
et 5462693
sp@@ 5440054
ine 5427624
u 5415070
ex@@ 5405713
good 5399550
Al@@ 5396917
di@@ 5380281
New 5374042
p 5369769
T 5312889
c 5273264
im@@ 5252356
x@@ 5238889
5@@ 5235936
Re@@ 5233212
St@@ 5169567
set 5168012
et@@ 5133864
ur@@ 5125087
know 5118098
end 5087505
last 5079934
including 5073504
6@@ 5070903
How 5067557
pl@@ 5066413
ter 5052012
business 5043236
before 5039322
free 4934492
il@@ 4934444
de@@ 4925856
being 4892126
go 4889615
right 4876872
ia 4855854
ap@@ 4854854
much 4825352
To 4815691
C 4815442
le 4798158
ar 4793897
9@@ 4782332
lo@@ 4776497
/@@ 4760855
ings 4737468
7@@ 4728867
b 4702237
man 4698013
off 4690710
tion 4666030
she 4657093
even 4635361
using 4632057
P 4616864
part 4608559
place 4601786
want 4597000
Z@@ 4593993
9 4578286
per 4542993
um@@ 4542689
op@@ 4536939
high 4532822
.. 4528192
great 4526387
... 4523246
between 4512799
world 4505751
als 4504156
est 4499631
each 4493614
ates 4472047
,@@ 4469626
find 4443374
service 4420278
h 4406670
D 4396948
ance 4371335
company 4368203
available 4349836
does 4349812
ri@@ 4333177
ies 4332314
M 4327415
1@@ 4307821
life 4301402
own 4299264
Con@@ 4293296
down 4285131
those 4257854
tions 4255748
be@@ 4254495
li@@ 4253185
br@@ 4249657
ing@@ 4244702
ig@@ 4238562
ec@@ 4233891
while 4231733
us@@ 4208123
0@@ 4203416
And 4202720
did 4170042
old 4150252
line 4145937
because 4133100
ul@@ 4096888
Sh@@ 4095686
qu@@ 4069415
Mar@@ 4065478
around 4064478
under 4043223
av@@ 4039422
team 4034664
both 4027227
data 4026021
se@@ 3975602
co@@ 3945833
gr@@ 3943117
ds 3929307
long 3912478
ty 3911111
support 3900361
ally 3885371
per@@ 3884478
three 3879494
bl@@ 3861711
ir@@ 3860720
ence 3846728
system 3827367
um 3823548
number 3816316
based 3793772
during 3790294
ph@@ 3775986
19@@ 3769361
next 3761790
king 3753277
services 3743717
same 3729905
se 3723564
As 3719404
ity 3716385
look 3695009
ans 3690421
— 3684911
X@@ 3679178
oc@@ 3673783
ad 3668105
os@@ 3666331
ical 3662066
2018 3657730
top 3609720
University 3584220
ary 3583112
son 3557149
ve 3553186
pro@@ 3549459
no@@ 3542225
od@@ 3528134
L 3520090
r 3511562
full 3508078
love 3499788
18@@ 3490347
ent@@ 3461913
res@@ 3459836
20 3448337
still 3441119
str@@ 3435666
O 3412770
end@@ 3401711
every 3400259
He 3392722
ors 3392589
ut@@ 3385964
come 3379442
B 3364452
0 3356865
days 3355011
area 3349184
site 3344466
sc@@ 3341875
cl@@ 3338540
‘ 3338356
less 3338020
ks 3334828
water 3334703
ou@@ 3333263
week 3330326
Th@@ 3326791
bo@@ 3326727
side 3323298
There 3321318
think 3318940
ist 3316854
order 3301382
experience 3299160
ak@@ 3298499
12 3291156
provide 3289254
ay 3286002
too 3285675
ob@@ 3275749
going 3274398
form 3273851
inter@@ 3271711
… 3250278
family 3249445
ator 3237927
and@@ 3233206
let 3225801
today 3217149
different 3213869
ass@@ 3204774
All 3190243
ne@@ 3179791
design 3177397
book 3171076
10@@ 3169371
Ar@@ 3158627
ton 3157848
him 3148650
car@@ 3146106
ver@@ 3143940
without 3142469
Tr@@ 3140652
online 3125815
par@@ 3122527
si@@ 3115857
name 3111950
page 3109610
ang@@ 3101777
30 3101067
must 3100575
red 3088560
G 3078443
ous 3076589
state 3075522
ment 3074714
R 3071436
pre@@ 3068367
ie 3053709
over@@ 3049758
game 3049241
another 3027733
Car@@ 3027244
website 3022759
working 3021668
local 3017335
please 3016016
land 3013873
ding 3010611
really 2997258
ish 2994694
since 2989350
15 2984208
ability 2980669
sure 2977890
Br@@ 2972143
z 2967644
ative 2962836
f 2962731
’ 2961810
ide 2954951
found 2953080
Ex@@ 2947943
small 2936329
On 2931612
ev@@ 2930510
against 2928468
school 2912063
po@@ 2908511
fl@@ 2905675
project 2903706
ite 2901095
With 2899607
post 2894136
give 2893123
within 2892317
few 2888127
ep@@ 2876549
house 2875518
.com 2857961
der 2855186
ot@@ 2854109
Un@@ 2852342
Do 2840456
ch 2839519
ay@@ 2835391
cr@@ 2834253
start 2834059
list 2833250
When 2831561
quality 2825357
ill@@ 2823420
room 2819581
dr@@ 2815703
rec@@ 2812843
Y 2809080
second 2808091
ons 2807925
au@@ 2800949
Our 2787722
better 2786358
products 2784631
ren@@ 2782502
ise 2777901
F 2777372
show 2774328
est@@ 2771086
te@@ 2768189
os 2759729
So 2759452
case 2758786
little 2741258
students 2739694
ke 2738794
all@@ 2738009
making 2737236
ker 2734398
pr@@ 2730127
ness 2729616
11 2725643
pres@@ 2715404
low 2714785
ard 2714443
su@@ 2706776
An@@ 2704350
Pro@@ 2700927
id 2694266
looking 2692642
process 2687363
But 2683432
group 2679730
2019 2678840
ter@@ 2678136
ics 2668151
event 2667796
ha@@ 2666252
market 2659273
De@@ 2648527
public 2647764
table 2645719
ov@@ 2644898
N 2638557
program 2637958
Ad@@ 2632290
children 2631580
Gr@@ 2629651
ement 2628421
2017 2614992
contact 2614815
say 2613797
min@@ 2613633
care 2607492
offer 2605693
50 2603415
for@@ 2596713
things 2591382
ell 2581361
open 2578294
point 2575441
12@@ 2568117
change 2567921
ess@@ 2567178
below 2564647
re 2559125
health 2556452
got 2543262
community 2542418
thing 2533039
20@@ 2529143
light 2528688
ever 2524871
att@@ 2522384
ber@@ 2503492
ry 2501295
always 2493607
play 2491561
oo@@ 2485454
_@@ 2481628
ful 2477908
ure 2475081
put 2468342
:@@ 2465229
development 2461381
Is 2460948
art 2458313
AR@@ 2457276
W 2456890
to@@ 2446740
field 2445947
’re 2442536
night 2438498
tic@@ 2435731
1.@@ 2427061
Ac@@ 2426058
pe@@ 2425479
keep 2422170
ats 2421684
ely 2419661
man@@ 2418011
course 2414335
call 2408623
out@@ 2403186
En@@ 2397893
H 2396786
ley 2394771
city 2392540
ge 2391714
sing 2384776
City 2380917
gl@@ 2376122
X 2371184
power 2369811
until 2368925
ties 2367173
wh@@ 2363908
Co@@ 2362840
ast@@ 2360489
ants 2359496
price 2356134
ain 2351692
com@@ 2351418
RE@@ 2350195
Cl@@ 2344547
again 2344458
level 2340877
ion 2336636
bi@@ 2335387
National 2322082
body 2320301
ses 2319086
food 2317409
2016 2316423
K 2311876
away 2305977
ue 2305861
view 2304204
access 2303084
following 2299650
US 2293844
together 2292606
something 2290358
important 2285182
board 2284648
bu@@ 2284341
25 2283016
range 2282807
product 2280797
aw@@ 2280122
ow@@ 2279357
country 2273744
ore 2271030
ick@@ 2269791
00@@ 2269733
ments 2268079
possible 2268055
_ 2267166
times 2266543
15@@ 2262544
(@@ 2259560
ian 2259066
United 2255439
No 2252264
ip@@ 2252047
ai@@ 2250887
led 2244573
members 2241797
AN@@ 2240918
Gu@@ 2239272
American 2237343
mar@@ 2233942
te 2228625
'@@ 2227042
ents 2226452
Your 2225037
ture 2224643
lot 2224001
uc@@ 2223454
called 2220133
els 2219321
research 2217542
IN@@ 2215877
ins 2214575
v 2212847
million 2206576
live 2204441
# 2202954
sub@@ 2202530
ice 2201799
he@@ 2201726
tic 2200965
video 2199681
mon@@ 2194120
the@@ 2194015
large 2192842
18 2191821
read 2191589
try 2187517
State 2186224
visit 2183100
create 2182468
four 2179140
Le@@ 2177225
ca 2174865
One 2174691
person 2174605
dec@@ 2173223
Bar@@ 2170246
16 2168537
season 2167836
fin@@ 2167127
real 2165611
16@@ 2165165
les 2159096
ind@@ 2158467
res 2158132
month 2157044
why 2156063
ps 2155932
Par@@ 2154590
might 2153576
include 2151815
Com@@ 2151280
having 2149039
,000 2147265
+ 2147195
-- 2145926
left 2143327
run 2138296
check 2134404
ten@@ 2133765
money 2131589
cur@@ 2129539
My 2128350
air 2123429
above 2121472
ial 2117390
st 2116357
ey 2114819
across 2109082
Please 2108787
along 2108121
needs 2104905
South 2104010
comm@@ 2100020
tive 2099457
ship 2094817
sl@@ 2089496
14 2089257
ess 2088204
hi@@ 2086703
mo@@ 2085712
Pl@@ 2080689
fi@@ 2080417
car 2079343
known 2076842
government 2076225
az@@ 2069382
ati@@ 2066716
17@@ 2066414
big 2066111
key 2066035
w 2063777
ge@@ 2063627
up@@ 2063113
sk@@ 2062193
works 2061823
School 2061565
plan 2060508
ake 2056654
ens 2055859
industry 2055742
ud@@ 2055634
fr@@ 2055066
col@@ 2053593
already 2050444
That 2044106
Qu@@ 2043682
bit 2043656
% 2041980
cost 2041424
ple 2040320
ear@@ 2034299
May 2033279
County 2032257
int@@ 2028985
30@@ 2027441
V 2026867
ah@@ 2015893
ick 2008949
vi@@ 2008256
Mon@@ 2007773
Be@@ 2006732
add 2006416
action 2002682
report 1996759
management 1994098
ER@@ 1991850
ain@@ 1991125
ages 1987943
tor 1985933
April 1984201
social 1983320
comp@@ 1982342
inc@@ 1981556
easy 1975832
says 1975416
2015 1974643
ling 1973811
special 1971198
current 1971078
ea@@ 1970851
13 1969154
] 1967945
U 1965197
future 1964759
building 1961166
ew@@ 1955897
never 1953878
share 1952906
enti@@ 1950200
de 1949101
email 1946369
under@@ 1945640
0.@@ 1944886
Am@@ 1942934
og@@ 1941522
anc@@ 1941296
head 1935470
[ 1929798
trans@@ 1929486
14@@ 1925995
ell@@ 1921946
hours 1920149
ked 1919670
media 1918657
ble 1915163
ery 1911594
At 1910573
Q@@ 1909423
personal 1908650
value 1907242
ce 1907031
* 1906691
non 1905604
ory 1902041
After 1901689
office 1899726
we@@ 1896047
file 1895703
bre@@ 1892051
become 1887309
control 1885858
World 1883025
UK 1882100
training 1881715
Mc@@ 1881063
il 1879380
ash 1877427
Mo@@ 1876597
Center 1875107
minutes 1868236
ying 1866672
AS@@ 1863201
property 1860883
inv@@ 1860265
Dis@@ 1859978
done 1857689
They 1856978
’ve 1856390
AT@@ 1855352
ace 1854230
| 1853707
least 1851269
Per@@ 1849233
ology 1848161
24 1846752
feel 1843935
North 1842353
located 1842085
series 1839862
size 1838821
tu@@ 1837895
space 1837259
ann@@ 1836683
El@@ 1834602
sed 1834188
early 1831156
Im@@ 1829799
Rec@@ 1825141
several 1824104
Col@@ 1823755
March 1818326
click 1816023
Sp@@ 1813048
member 1812785
cor@@ 1811557
according 1810240
companies 1810095
lin@@ 1809343
co 1808337
International 1805973
ff@@ 1805442
music 1803062
others 1802970
’ll 1801258
ering 1800823
taking 1792030
Pr@@ 1791926
Di@@ 1790852
17 1790558
2.@@ 1788743
ways 1786949
York 1782801
her@@ 1782499
hand 1778505
box 1776127
'm 1774832
ane 1772148
ade 1771155
2014 1770558
held 1764181
John 1763123
if@@ 1762628
complete 1762010
via 1761387
ones 1759439
sion 1758327
do@@ 1757767
Se@@ 1756549
ded 1755675
ner 1753840
cre@@ 1753001
Cr@@ 1750597
13@@ 1750045
ana 1748377
AC@@ 1747272
five 1744685
coming 1744308
due 1743872
bar@@ 1742632
law 1740738
bed 1737864
application 1736547
're 1735684
getting 1734992
gu@@ 1734648
technology 1734619
etc 1731129
learn 1730475
offers 1730457
means 1729549
act 1725499
IS@@ 1723316
wood 1720000
acc@@ 1719101
God 1715957
front 1714398
Or@@ 1712331
past 1711307
job 1709582
type 1707935
ack 1706521
100 1705831
gi@@ 1704701
our@@ 1704078
af@@ 1703031
phone 1702676
address 1702092
sw@@ 1700310
Har@@ 1699613
acy 1699372
air@@ 1699136
comes 1699009
3.@@ 1698840
del@@ 1696024
ast 1694829
Now 1694098
ant@@ 1693471
cont@@ 1693146
tional 1691680
months 1689067
ash@@ 1687448
@@@ 1687369
Cor@@ 1687232
far 1685651
Home 1685484
CO@@ 1685413
ized 1685096
For@@ 1683817
related 1679310
once 1676908
study 1673826
ideas 1673667
third 1673410
performance 1670018
June 1667990
story 1664344
ard@@ 1663908
class 1662613
card 1661982
tics 1661725
war@@ 1660933
ale 1660113
questions 1660088
19 1659844
ning 1659613
white 1654734
party 1653687
self 1652919
ol 1652028
further 1651089
ber 1650939
date 1649785
40 1649429
Res@@ 1649165
ach@@ 1648479
> 1648303
ler 1647835
took 1647533
Here 1645458
iz@@ 1643970
Why 1642661
'll 1641946
pay 1641603
given 1641072
ster 1638174
ves 1635197
ms 1635096
U.S. 1632957
version 1631240
Ed@@ 1631016
makes 1630186
position 1626928
An 1624148
sale 1620221
sts 1620210
win 1614503
doing 1612478
sec@@ 1612415
near 1610017
posted 1609122
Ro@@ 1606543
des@@ 1604305
content 1604005
met@@ 1603774
living 1603232
00 1601916
started 1601916
code 1601710
tri@@ 1601331
details 1601315
har@@ 1599428
der@@ 1597960
test 1595415
professional 1588807
me@@ 1588233
ently 1586907
web 1586798
wor@@ 1585989
customers 1585691
security 1585582
London 1584772
buy 1584744
required 1584354
Park 1583917
tical 1583458
ire 1582641
From 1582128
yet 1580839
Day 1580094
ne 1579073
've 1578905
21 1575435
ago 1575414
ular 1574895
eg@@ 1573908
account 1572361
Can 1572100
ST@@ 1571820
wide 1571781
events 1571694
wall 1571541
close 1567141
ators 1566964
aff@@ 1566709
Friday 1564898
news 1563862
ath@@ 1559904
25@@ 1559532
are@@ 1558157
main 1557285
ah 1555666
ina 1554471
added 1554400
Me@@ 1553532
Bl@@ 1552980
single 1552896
latest 1551613
short 1550806
IC@@ 1550342
provided 1548642
hard 1547186
sol@@ 1546475
House 1544893
’m 1543089
2013 1541697
user 1541496
IT@@ 1540648
came 1540054
though 1539316
ear 1538702
198@@ 1537151
pm 1534932
ines 1534928
ism 1531668
major 1529967
rem@@ 1528695
These 1527149
ill 1526743
beautiful 1524523
ase 1523598
issue 1521413
China 1521112
ub@@ 1521074
enough 1520389
various 1519440
She 1519310
ru@@ 1517529
ot 1517266
cap@@ 1515282
rest 1514182
Ph@@ 1513701
ther@@ 1511920
provides 1510974
bring 1510195
staff 1507860
oil 1503691
face 1500623
points 1500019
issues 1498194
Service 1498085
term 1495723
history 1495398
States 1494449
meeting 1493514
ran@@ 1492628
bur@@ 1491738
whether 1491349
women 1491332
Of 1490656
24@@ 1490411
build 1489935
link 1489564
Man@@ 1489191
ered 1487432
hand@@ 1487407
interest 1485460
US@@ 1484737
currently 1484602
among 1483012
later 1482674
energy 1482619
taken 1482002
pol@@ 1481572
often 1478110
President 1477557
fun 1477072
ality 1476317
international 1475282
22 1474919
areas 1474260
half 1474191
rel@@ 1473176
Su@@ 1472721
Health 1470867
meet 1469705
vis@@ 1469105
tw@@ 1465049
ters 1464638
shall 1464613
July 1462545
ches 1462432
paper 1462216
def@@ 1461758
60 1457571
bas@@ 1457000
off@@ 1456557
results 1456233
software 1455640
ust@@ 1455205
features 1454992
perfect 1454751
uses 1454465
problem 1454156
kind 1450969
2012 1450616
designed 1448908
article 1446892
Fl@@ 1446174
ect 1445147
che@@ 1444240
ications 1443979
enc@@ 1440783
sur@@ 1439875
style 1438293
OR@@ 1437972
ra@@ 1437581
atic 1437532
rate 1436898
India 1436188
West 1434068
Saturday 1432549
ys 1432458
ist@@ 1429846
financial 1429501
Are 1429398
spec@@ 1428145
image 1425214
review 1424771
ER 1423204
receive 1422880
fully 1420922
ong 1420588
ee 1419831
£ 1419577
education 1418165
entry 1417192
ish@@ 1415731
ious 1413200
Department 1413164
Q 1411869
ual 1411811
hope 1411704
por@@ 1410899
No@@ 1409335
He@@ 1408753
blog 1408283
search 1405113
High 1404909
ive 1404794
January 1404351
friends 1403530
seen 1403227
September 1402105
move 1401452
igh@@ 1401399
cover 1401110
iv@@ 1399528
AL@@ 1397369
form@@ 1396955
former 1396481
October 1396393
customer 1395809
present 1395737
EN@@ 1394839
example 1393186
town 1392704
work@@ 1392471
enjoy 1392402
lead 1392179
ational 1392074
Po@@ 1387338
tim@@ 1386475
Group 1385954
ari@@ 1385560
word 1384635
games 1384346
ai 1384168
sales 1382952
leading 1382874
ang 1381801
store 1379836
private 1379230
final 1378163
bro@@ 1373755
TV 1370470
)@@ 1370412
child 1369482
production 1368729
percent 1368141
By 1367262
systems 1366681
ically 1365679
4.@@ 1365678
recent 1365500
J 1365486
born 1363828
ier 1363671
mat@@ 1363436
pen@@ 1362254
forward 1360316
ret@@ 1359923
whole 1357027
ON@@ 1356767
Sunday 1354988
either 1351898
ask 1351474
Business 1347875
period 1347870
ions 1347835
Bi@@ 1347556
section 1346129
black 1345051
ight 1345048
ements 1344931
received 1343630
38@@ 1343532
November 1343178
specific 1342408
exc@@ 1342312
Dr@@ 1340132
includes 1339916
ensure 1338926
ver 1338790
tax 1337779
idea 1336936
mind 1336922
simple 1336369
step 1336286
Pre@@ 1335983
unique 1335793
words 1335460
ited 1332289
Services 1331688
Inter@@ 1331450
mer 1331370
activities 1331112
char@@ 1330740
men 1329924
national 1329134
Ne@@ 1327334
America 1325897
recently 1325555
giving 1325266
result 1322727
projects 1321642
download 1320896
Click 1319217
leg@@ 1318193
door 1317610
ams 1316924
location 1316556
mobile 1314040
sen@@ 1313510
users 1313336
ances 1311886
Wh@@ 1311414
ised 1309894
AM@@ 1308333
deal 1306762
ready 1306149
total 1304870
More 1303749
actually 1303212
ip 1302937
increase 1301405
ars 1301084
ap 1300981
went 1298790
11@@ 1298062
December 1297490
ater 1296461
Inc. 1296016
Free 1293418
Best 1292317
network 1292194
soon 1291772
option 1291684
Monday 1290973
ection 1290517
p.m. 1290027
Bo@@ 1288985
23 1288529
question 1287697
ach 1287127
Get 1286882
addition 1284397
continue 1283712
created 1282254
tion@@ 1280665
ur 1280551
amount 1280452
young 1280376
model 1280124
ays 1279395
Sk@@ 1278783
dem@@ 1278420
Ab@@ 1275384
ites 1272722
ak 1272701
ther 1272295
changes 1270425
writing 1267323
role 1265526
compl@@ 1265064
ping 1263411
Char@@ 1262131
ute 1260754
road 1260339
student 1260022
allow 1259978
pos@@ 1258903
follow 1258675
ground 1258604
natural 1258266
bel@@ 1256973
return 1255780
ize 1255746
learning 1255709
English 1255183
running 1255100
heart 1254895
ls 1254757
ile 1254410
A. 1254396
Sc@@ 1253650
iting 1251830
ences 1247881
general 1246650
s’ 1245572
clear 1245463
especially 1244571
50@@ 1244204
brand 1244042
ma@@ 1242658
ow 1242290
ong@@ 1241801
travel 1239117
enn@@ 1237467
ail@@ 1236121
stay 1236112
College 1236062
Min@@ 1235371
ication 1234608
late 1234379
turn 1234211
ental 1234047
someone 1232557
= 1231903
any@@ 1229075
machine 1228945
Thanks 1228595
ail 1226414
send 1225496
options 1224579
original 1224232
thought 1222856
marketing 1222350
2011 1222275
While 1222129
told 1221298
inf@@ 1220343
First 1220137
built 1219794
written 1219413
la@@ 1219074
28 1218925
needed 1218890
om 1218395
pi@@ 1218149
go@@ 1217978
likely 1216872
choose 1215813
opportunity 1215222
stop 1212692
Sw@@ 1212487
Australia 1212372
practice 1210558
February 1210435
ford 1210203
film 1210131
ching 1209497
equipment 1209425
fact 1208839
providing 1208344
strong 1208157
ides 1207973
happy 1207849
Te@@ 1206859
gre@@ 1206637
announced 1206575
plans 1205929
reading 1203079
coll@@ 1201680
&@@ 1200230
outside 1199292
everything 1197743
books 1195963
Sal@@ 1195666
August 1194162
Li@@ 1192207
Gl@@ 1191396
5.@@ 1191259
2010 1190984
ency 1190813
shows 1190175
shop 1189874
sm@@ 1189751
round 1189647
color 1189441
clients 1189208
included 1188788
mod@@ 1185664
ack@@ 1185522
LE@@ 1184720
sal@@ 1184399
itation 1184326
release 1183574
behind 1181083
human 1179846
26 1179754
Council 1179039
yp@@ 1178990
additional 1177782
ets 1177059
ising 1176916
plant 1176529
six 1176173
Gre@@ 1175984
ass 1175252
ut 1174663
Street 1174269
Association 1174227
head@@ 1174092
lines 1173012
ci@@ 1172485
parts 1172108
risk 1171102
ied 1169979
cer@@ 1169899
Company 1169808
arm@@ 1169373
popular 1168961
tell 1168896
treatment 1167898
fer@@ 1167807
medical 1167645
ped 1167531
understand 1167328
Hol@@ 1165511
sel@@ 1165191
hol@@ 1164710
ains 1163945
almost 1163822
Ma@@ 1162670
Wal@@ 1161378
policy 1161291
app 1160387
published 1160346
Str@@ 1159105
Nor@@ 1158872
Google 1157521
growth 1157137
ra 1156943
ven@@ 1156309
stone 1156203
drive 1155045
ath 1154957
Em@@ 1154841
record 1154096
Fr@@ 1153946
bs 1153486
mis@@ 1152571
ended 1150673
ik@@ 1150337
source 1150108
ring 1148296
fast 1148071
sions 1147837
Canada 1147649
ke@@ 1146562
det@@ 1145948
ze 1145864
197@@ 1144511
fo@@ 1144274
common 1142864
knowledge 1140247
27 1138243
Sch@@ 1138146
ame 1136634
ser@@ 1136433
app@@ 1135008
skills 1135001
lower 1134973
East 1134612
ving 1131905
fre@@ 1130187
summer 1129853
ON 1128536
weeks 1128363
kitchen 1128148
collection 1128134
oun@@ 1127732
environment 1127305
insurance 1127242
ville 1127034
RO@@ 1124584
cul@@ 1123948
pages 1121847
digital 1119929
hold 1119635
pri@@ 1119073
believe 1118966
standard 1118514
IT 1118231
Thursday 1117836
Ag@@ 1117348
programs 1116088
Mil@@ 1114759
problems 1114641
global 1114636
worth 1114452
ger 1113823
ists 1113135
looks 1112831
San 1111770
Ver@@ 1110370
Dec@@ 1110188
Sur@@ 1109857
inside 1109406
average 1108241
modern 1107195
ched 1106737
23@@ 1106588
Tuesday 1105744
thanks 1105604
European 1104774
yourself 1104587
fire 1103946
computer 1103845
expected 1102849
sn@@ 1102673
ation@@ 1101848
safety 1100923
items 1099660
Sha@@ 1098832
rights 1097619
active 1096503
purchase 1095872
improve 1095566
countries 1095399
mer@@ 1095346
device 1094321
leave 1094094
Office 1093767
que 1093458
weight 1093081
cut 1092745
bar 1092384
center 1092333
screen 1091677
everyone 1091628
cy@@ 1090550
California 1089910
port@@ 1087654
join 1087242
mm 1086661
AP@@ 1086126
Christmas 1084846
du@@ 1084243
however 1084074
ose 1083474
General 1082378
aid 1080512
ight@@ 1078440
apply 1078127
ned 1078067
imm@@ 1077952
row 1077465
individual 1075769
ore@@ 1074549
Design 1073033
solution 1072397
throughout 1071990
potential 1071798
Great 1071629
net 1071184
Sub@@ 1069449
dro@@ 1069050
bor@@ 1068710
New@@ 1067157
ns 1066978
Fi@@ 1066824
terms 1065494
Wednesday 1064932
jo@@ 1064728
tly 1064085
David 1063810
St. 1063715
LO@@ 1063376
Facebook 1063262
directly 1061786
SE@@ 1061438
released 1061313
Research 1061143
takes 1060092
base 1059382
request 1059189
storage 1058130
focus 1057184
photo 1056306
decision 1056112
201@@ 1055069
tur@@ 1054615
credit 1054561
33@@ 1054230
feature 1053266
effective 1053153
itt@@ 1052305
low@@ 1052114
med@@ 1051992
ham 1050990
Dr. 1050978
claim 1050272
impact 1049976
organization 1049850
ID 1049013
ises 1048682
save 1048605
Des@@ 1047848
gener@@ 1047614
gs 1047353
fit 1046378
31 1045691
Board 1045261
coun@@ 1044104
ium 1043769
floor 1043601
material 1042763
ma 1042633
legal 1042298
similar 1041777
higher 1040893
500 1040190
27@@ 1040185
’@@ 1039246
equ@@ 1037602
anything 1037184
fil@@ 1037048
tools 1036669
29 1035396
Management 1035147
Fe@@ 1034811
und@@ 1034313
Sol@@ 1033640
images 1032985
mark 1032529
annual 1031601
prot@@ 1030993
tor@@ 1030326
choice 1030316
morning 1029755
ica 1029424
rather 1028842
28@@ 1028441
Jo@@ 1027996
conditions 1027022
6.@@ 1025887
kids 1024968
success 1024965
so@@ 1024605
note 1024515
Thank 1024204
limited 1023759
loss 1023717
force 1023451
back@@ 1023065
playing 1022833
mag@@ 1022824
reach 1022796
charge 1022484
amp@@ 1021611
necessary 1021160
photos 1020947
akes 1020002
la 1019417
ste@@ 1019395
Op@@ 1018570
construction 1017358
Europe 1017250
career 1017233
write 1016602
costs 1015829
ards 1015756
eds 1015440
planning 1015182
resources 1015057
tors 1014558
ta 1014402
asked 1014311
mil@@ 1012909
can@@ 1012768
UN@@ 1012663
40@@ 1011681
ve@@ 1011042
hom@@ 1010382
ama 1010228
Rel@@ 1009952
hour 1009864
track 1009423
TH@@ 1009279
piece 1008630
ir 1008413
don@@ 1007936
Black 1006813
Vi@@ 1005664
Her@@ 1005383
friend 1005131
ound 1004712
See 1004406
Bur@@ 1004331
nice 1004093
mean 1002363
talk 1000287
J. 1000107
solutions 997072
vol@@ 996571
Mor@@ 996379
However 996210
White 995255
land@@ 995254
cri@@ 994203
Just 993849
safe 993637
Fre@@ 993504
worked 992386
materials 992350
fe@@ 992249
ball 991790
ES@@ 991289
gen@@ 990807
bul@@ 990172
green 989333
chance 988571
players 988479
special@@ 987900
official 987049
hon@@ 986893
patients 986676
wo 986242
IS 986176
anyone 985977
ishing 984544
simply 984112
ign@@ 983199
Cal@@ 983050
CH@@ 983043
sent 981942
add@@ 981534
Washington 981321
saw 981059
loc@@ 980839
ft 980501
message 980467
CA@@ 979975
fall 979594
stand 979529
favorite 979441
Road 979102
furniture 979022
stri@@ 978739
quite 978517
ush 978400
matter 977502
His 977041
pat@@ 976908
:00 976533
bal@@ 976386
interested 975914
tain 975861
plus 974410
ends 974296
goal 973757
picture 973617
onic 973504
ef@@ 972820
mission 972272
yl@@ 972267
ound@@ 971512
tool 971386
ored 971241
ali@@ 971230
region 970997
dy 970534
sive 966878
hum@@ 966391
certain 964137
groups 963522
itself 963432
trip 963247
tures 962814
ented 962327
port 961583
60@@ 961165
trying 960903
Ter@@ 960543
amm@@ 960510
ories 960063
Tri@@ 959959
ably 959769
200 959038
ices 959001
true 958904
stock 958000
wal@@ 957768
Ber@@ 957722
Windows 957699
press 957646
AD@@ 957518
ills 957005
45 956920
ately 956829
aches 956745
ro 956439
9.@@ 956413
subject 956172
ens@@ 955999
Not 955542
enter 955241
Institute 955212
involved 954526
ool 954410
nt 954070
ID@@ 953970
won 952902
Club 952394
vari@@ 949097
essed 948248
amazing 948061
instead 948054
blo@@ 947319
requirements 947216
real@@ 947204
sha@@ 947090
Pol@@ 946974
em 946380
police 946361
Wil@@ 945847
upon 945285
session 945211
ky 945129
pur@@ 945008
ands 943998
Reg@@ 943757
ket 943629
hotel 943306
Bro@@ 942655
hit 942268
advis@@ 940801
2009 940636
gold 940597
io 940596
Have 940244
mail 940135
sign 939998
analy@@ 939037
ution 938488
Tur@@ 938177
aging 937846
tro@@ 937550
im 936568
ological 936388
extra 935988
Pres@@ 935356
files 935252
Art 934846
publ@@ 934705
sell 934377
q@@ 933933
ep 933872
platform 933869
val@@ 933770
erv@@ 933668
reason 933542
prices 933133
benefits 932327
text 932147
USA 931839
watch 931804
hy@@ 931784
Cre@@ 931417
aries 931248
ging 930333
skin 929014
variety 928990
PM 928986
rooms 928957
den@@ 928818
payment 928509
player 928201
Bre@@ 928195
direct 928147
arch@@ 927982
cent 926896
daily 926053
campaign 925300
cause 925105
ished 924727
IM@@ 924527
print 924435
Some 923624
trade 923465
ond 921319
weekend 921072
M. 921018
stage 920569
served 920400
guide 919890
Bal@@ 919374
develop 919200
Lo@@ 919034
club 918760
ads 918338
director 917683
applications 915941
commercial 915741
pretty 915600
Del@@ 915322
AM 914367
language 914329
Education 913815
court 913718
wr@@ 913403
80 913096
emp@@ 912891
of@@ 912487
35 911308
couple 910901
previous 910770
serve 910536
reported 910404
client 910010
CA 909902
race 909890
ected 909788
struc@@ 909664
ever@@ 908628
prec@@ 908389
method 908353
fresh 908128
offering 906945
tre@@ 906788
ners 906632
crusher 906384
ved 906195
president 906174
investment 906110
west 903741
match 903327
ust 903291
wanted 902496
Pal@@ 901997
ancy 901917
glass 901457
probably 901237
® 900048
reg@@ 899929
cal@@ 899630
activity 899055
Fac@@ 897642
7.@@ 896992
News 896095
Fin@@ 895427
umb@@ 895187
ination 895147
PC 894993
longer 894727
Out@@ 894706
Bank 894546
26@@ 894451
degree 894450
mus@@ 894447
boo@@ 894325
parents 893594
hot 892069
effect 891854
Director 891774
lost 891179
paid 890185
ten 889623
ES 889581
window 889566
types 889512
starting 889335
wish 889138
British 888911
double 888667
Development 887987
1,@@ 887841
pic@@ 887576
Bas@@ 887552
Also 887346
Use 887340
Where 886837
bank 886510
lives 886276
multiple 886164
ood 886155
Mag@@ 885589
2008 885445
largest 885339
ere 884715
Africa 883729
ok@@ 883085
ward 882741
Trump 882569
host 882095
S. 881983
produc@@ 881339
Bu@@ 880814
ects 880578
We@@ 880133
bad 879893
ecting 878340
walk 877319
Internet 877268
map 876141
ships 875714
Mr 875547
approach 875540
ges 874645
developed 874543
named 874528
easily 873247
James 873058
reports 872715
­@@ 872371
band 872010
death 871738
star 871534
ING 870799
Bel@@ 870024
employees 869859
ending 869133
gets 868424
sites 868355
ave 867477
8.@@ 867184
ries 866728
anding 866637
highly 866595
row@@ 866447
speed 866032
ous@@ 865527
seems 865458
hor@@ 864117
roll 863749
function 863711
allows 863051
Next 862766
analysis 862630
Who 862241
conference 861827
prof@@ 861073
ya 860253
answer 859429
clean 859421
ington 858946
delivery 858518
elling 857628
tour 857578
gar@@ 856053
Texas 855317
title 855185
shot 854615
sound 854195
ion@@ 853423
Cam@@ 852535
Community 852438
usually 852402
Cap@@ 852202
www.@@ 852050
update 851710
ths 851695
fine 851203
successful 850975
display 850947
cases 850834
ys@@ 849977
registered 849436
button 848975
inst@@ 848845
oy@@ 848768
post@@ 848275
Today 848200
Sec@@ 847899
unit 847857
ading 847717
IP 847237
ily 846983
fac@@ 846876
As@@ 846798
select 846635
fol@@ 846032
anti@@ 845787
D. 845712
Wor@@ 845587
Let 845569
Check 845335
Science 845117
places 844872
opportunities 844265
existing 844106
growing 843490
pass@@ 843477
met 843198
hab@@ 843177
sil@@ 843143
particular 842304
ids 842046
29@@ 842027
excellent 842022
letter 841996
PS 841595
ually 841285
ank@@ 840669
Rem@@ 840537
rent 839924
interesting 839667
supply 839387
Life 838814
AL 838356
IN 838326
yer 838254
Will 838056
traditional 837782
ization 837602
sch@@ 837357
gas 837022
themselves 835994
sea 835166
ine@@ 835004
firm 834735
levels 834525
Church 834463
nothing 834230
eral 834053
According 833889
ris@@ 832654
na 832573
political 832470
Act 831884
pass 831851
regular 831487
kers 831159
Cont@@ 830573
economic 830488
schools 830378
lim@@ 829812
sun@@ 829554
.... 829063
Time 828983
law@@ 828645
Paul 827913
businesses 827663
opening 826476
trav@@ 825672
miles 825335
Can@@ 825167
ax@@ 825083
played 825016
'd 824823
break 824689
Ge@@ 824682
Michael 823232
sup@@ 822808
tural 822636
Online 822568
vehicle 821976
Court 821922
consider 821646
clo@@ 820798
lock 820667
sti@@ 820373
Last 819888
eth@@ 819841
else 818657
pu@@ 818563
creating 817536
Hy@@ 816799
benefit 816718
Sim@@ 816713
ress 816517
ED 815755
Yes 815389
ough 815338
cu@@ 815241
became 814650
70 814578
tra@@ 812916
iti@@ 812231
ective 812026
ly@@ 811473
ox@@ 811184
pictures 811093
lots 810797
UR@@ 810475
England 810246
park 809857
PA 809805
32 809647
ici@@ 809541
wat@@ 809147
purpose 808323
educ@@ 808304
eter 808109
Year 807236
ears 806241
ock 806217
completed 805824
syn@@ 805424
Be 804949
entire 804349
cle 804133
response 803521
Public 803296
Foundation 802940
ful@@ 802371
vote 801907
THE 801272
St 801215
medi@@ 801208
respon@@ 801109
hear 801062
ord@@ 800828
000 800626
ug@@ 800491
Off@@ 800322
MA@@ 800269
pre 799980
ric 799832
den 799611
Program 799316
setting 799033
ained 797638
Find 797420
decor@@ 797254
NE@@ 797206
bathroom 796848
eng@@ 796209
ino 795766
Ros@@ 795513
serv@@ 795385
offered 795009
-year 794773
blue 794765
II 794494
ney 794210
MS 794116
Law 793094
billion 791709
fa@@ 790648
gift 789718
dry 789370
Val@@ 788646
Book 788584
Centre 786790
Good 786486
?@@ 785949
ails 785643
Make 785219
ead 784394
moment 784117
Data 783684
ese 783651
my@@ 783324
quickly 782731
ene 782711
server 782425
ref@@ 782280
Government 782275
hair 782202
era 781881
gives 781877
BC 781849
1st 781747
ounds 781616
actions 781578
listed 781467
French 781152
award 781149
science 779975
Cur@@ 779698
Information 779454
Committee 778895
iring 778887
gave 778838
Red 778106
ans@@ 777988
90 777712
lif@@ 777347
ink 777085
advice 776994
friendly 776669
’d 775594
whose 775200
forms 775053
IR@@ 774752
enting 774208
thr@@ 774051
196@@ 773985
Florida 773607
super@@ 773490
significant 773396
Central 773109
contract 773080
Pri@@ 772873
Bay 772502
uti@@ 771451
un 770844
teams 769841
goals 769248
dog 768846
coffee 768561
touch 768435
ature 768343
copy 768309
My@@ 768058
statement 768027
Lu@@ 767924
Si@@ 767775
pool 767717
sense 767400
station 767353
Social 767328
baby 767249
1/@@ 766660
ex 766226
Green 766158
decided 765761
Z 765725
states 765419
steel 765009
vision 764508
ech@@ 764446
custom 764263
regarding 764215
ders 763868
bus 763723
:30 763599
Does 763446
moving 763072
Ju@@ 762512
ano 762414
Sam@@ 762268
families 762095
owner 761502
IL@@ 761037
thinking 759690
Ser@@ 759533
Up@@ 759071
Project 758762
SA@@ 758343
pe 756245
ously 756156
–@@ 755369
towards 754939
yn@@ 754826
ara 754767
airs 754468
mem@@ 754441
ith 754297
System 753936
goes 752760
dri@@ 752534
mental 752471
pressure 751934
income 751893
Mer@@ 751550
war 751419
Pi@@ 750647
sum@@ 750578
Met@@ 749465
Air 749139
Mal@@ 749104
fill 747814
tured 747157
quick 746761
Once 746121
80@@ 745792
dic@@ 744822
changed 744015
erg@@ 743924
ey@@ 743903
steps 743733
Ke@@ 743278
Since 742787
Ap@@ 742694
é@@ 742630
leader 742585
dev@@ 742105
reviews 741985
expl@@ 741896
ac 741816
woman 741554
izing 741294
hands 741256
fund 740810
helps 740591
ert 740586
heat 740401
SP@@ 740200
ury 738660
lie 738548
spr@@ 738538
saying 737918
conf@@ 737569
elec@@ 737407
Lake 736972
let@@ 736932
War@@ 736879
rates 736387
drop 736287
~ 736203
2007 736087
positive 735860
Music 735435
sem@@ 735412
ie@@ 735390
Open 735357
log@@ 735239
sets 735228
wait 735228
prov@@ 735217
difference 734787
comment 734563
huge 734324
illing 734320
winning 734260
orders 734167
s.@@ 733962
author 733579
ply 733550
although 732554
ny 732381
arr@@ 732147
wonderful 731231
ils 731156
reduce 730822
ka 730695
connection 730673
ingly 730597
sold 730404
tips 729651
welcome 729237
99 729193
ming 728557
healthy 728390
Gen@@ 728386
devices 727414
AB@@ 727324
ged 727207
movie 726370
protection 726155
op 725502
exp@@ 725471
Society 725154
Is@@ 724987
pick 724905
Then 724726
responsible 724205
Pat@@ 724153
CS@@ 723762
nature 723017
acking 722236
wedding 721765
cli@@ 721695
Two 721422
cards 721296
cat@@ 721056
Chinese 720521
finished 720142
selected 719736
attention 719689
cel@@ 719531
Inst@@ 719388
oo 719370
require 719324
aded 718860
and/or 718707
technical 718684
Security 718436
church 717882
agreement 717747
understanding 717634
begin 717507
ahead 717223
Vis@@ 717161
finish 716943
ities 716666
Go@@ 716490
rest@@ 716225
District 716079
views 716050
ights 715954
vir@@ 715844
fee 715656
relationship 715100
culture 714769
spend 714713
hel@@ 714191
flo@@ 712861
physical 712773
River 712473
selection 712371
died 712176
Love 712096
cool 711679
ples 711205
appropriate 711096
Technology 711036
comb@@ 710790
pop@@ 710378
highest 710292
imp@@ 710164
hun@@ 710029
zz@@ 709413
Rob@@ 709295
ster@@ 709049
35@@ 708984
thank 708976
comments 708954
condition 708451
ouse 708418
Note 708276
Comm@@ 708187
Which 708081
leaders 707999
cop@@ 707805
brought 707767
acts 707204
situation 707188
entation 707126
considered 706518
lets 705865
Apple 705810
shire 705564
sports 705306
estate 704491
sector 704376
Mad@@ 704263
Sun@@ 704236
Hun@@ 703869
flow 703723
Post 703641
Conference 702985
presented 702868
King 702501
proc@@ 702495
Gold 702417
NO@@ 702364
budget 702358
install 702045
exec@@ 701563
Vol@@ 701551
deep 701407
sport 701389
numbers 701280
2nd 701154
garden 701138
college 701128
links 700927
partner 700090
od 699919
minute 699323
earlier 699020
capital 698927
discuss 698165
grow 697919
TR@@ 697842
lic 697536
metal 697351
patient 697255
oper@@ 696738
closed 696633
ining 696590
Mac@@ 696562
atch 696432
ind 696259
Er@@ 696199
famous 696174
finally 695956
ening 695772
ases 695453
rules 695257
:5@@ 695178
Team 695139
corporate 695134
Minister 694556
ums 694014
Rev@@ 693596
owned 693278
ailing 693272
acks 692594
Other 691949
ek 691612
Island 690787
cast 690703
cash 690666
sharing 690595
holiday 690267
Coun@@ 690071
internet 689915
operation 689796
seven 689723
art@@ 689641
36@@ 689622
senior 689372
established 689111
esting 689018
Dev@@ 688076
damage 687649
Fun@@ 687592
strategy 687556
ole 687444
Web 686156
mid@@ 686044
tree 685906
Take 685747
ni@@ 685177
star@@ 684929
outdoor 684927
ours 684295
atory 684100
target 683546
agr@@ 683334
associated 683327
helping 682245
wife 681934
Jesus 681683
scale 681454
bottom 681018
basic 680920
ho@@ 680815
individuals 680731
ond@@ 680504
manager 680432
correct 680403
began 680128
advanced 680003
Du@@ 679821
basis 679653
Hall 679462
read@@ 679323
completely 679312
ures 679290
selling 678804
Arch@@ 678638
produce 678395
Hor@@ 677987
bing 677937
200@@ 677850
Ob@@ 677261
Most 677224
structure 677088
remember 677005
ured 676923
facilities 676599
Gar@@ 676550
mother 676203
jud@@ 675953
south 675732
itch@@ 675383
Mr. 675128
edge 674965
refer@@ 674720
Phot@@ 674566
sle@@ 674535
adding 674260
nam@@ 674068
item 673692
ader 673548
Ben@@ 673266
weather 672762
prior 671978
OS 671719
dia 671270
rac@@ 671078
transfer 670817
iding 670620
ili@@ 670611
sus@@ 670282
TI@@ 669679
residents 669542
sy@@ 669275
EL@@ 668990
shown 668780
Big 668701
agree 668625
creative 668400
eye 668311
75 668237
tains 668112
pot 667948
recommend 667917
ower 667543
competition 667148
grad@@ 667094
Medical 666919
Cy@@ 666760
36 666731
homes 666680
ware 666232
processing 666181
Comp@@ 666040
profit 665852
aged 665719
ib@@ 665718
difficult 665653
Indian 665101
allowed 664889
Well 664800
military 664555
evening 664511
opened 664480
produced 664230
wel@@ 664212
tract 664165
owners 664148
communication 664043
League 663849
til@@ 663847
Sy@@ 663308
Add 663285
Japan 663164
connect 662900
dig@@ 662898
Valley 662552
:0@@ 662545
HO@@ 662286
tt@@ 661807
Family 661804
ark 661518
Award 661504
int 661494
ce@@ 661485
ester 661180
EC@@ 661021
Bir@@ 661004
amp 660897
pay@@ 660183
mark@@ 660034
ab 660022
Doc@@ 659949
mal@@ 659792
autom@@ 659671
eat 659468
spent 659180
experienced 659143
Trans@@ 659017
maybe 658948
deliver 658791
rist@@ 658690
key@@ 658689
song 658460
block 658053
challenge 657670
Beach 657039
Read 656705
protect 656213
tou@@ 655868
uk@@ 655650
Care 655392
eting 655203
traffic 655172
schedule 654810
status 654351
overall 654331
tom@@ 654086
Lab@@ 653642
ison 653307
MP@@ 653208
sted 652922
nearly 652899
driving 652679
Download 652485
suit 652389
ha 652144
France 652103
foot 651870
heard 651526
standing 651093
Hotel 651007
ment@@ 650848
hal@@ 650387
launch 649961
fish 649949
squ@@ 649854
remove 649814
dedicated 649687
:4@@ 649317
person@@ 649064
Mark 648844
beginning 648782
asting 648768
keeping 648534
sing@@ 648489
cour@@ 648393
ulation 648331
efforts 648236
ease 648102
AT 647997
< 647938
edly 647620
sor@@ 647578
Top 647399
beyond 647237
ome 646811
operations 646785
Party 646407
street 646243
sett@@ 646060
Pe@@ 646028
covered 645780
istic 645164
loo@@ 645067
oms 645038
funding 644339
inary 644321
cross 644175
anti 644004
menu 643852
Dr 643834
ou 643819
blood 643458
Global 643392
cou@@ 642820
signed 642295
tation 641677
aming 641653
capacity 641294
centre 641209
sheet 640972
die 640886
appear 640818
inch 640805
Up 640735
Power 640731
fun@@ 640631
agency 640454
Journal 640394
rep@@ 640178
chair 640085
relevant 639895
seeing 639876
manage 639874
tra 639785
Australian 639545
posed 638339
IG@@ 638160
viol@@ 638085
aster 637969
Oper@@ 637724
ette 637613
book@@ 637316
men@@ 637192
!@@ 637147
jobs 636956
dist@@ 636613
stories 636453
passed 636389
gri@@ 636212
Union 635916
Phil@@ 635749
33 635645
followed 635336
Ann@@ 635298
package 634661
grade 634375
panel 634272
frame 633581
2006 633223
increased 633184
ady 633072
a.m. 632942
pose 632890
cir@@ 632350
Wr@@ 632183
notice 632183
0% 632078
middle 632078
MA 632073
ups 631897
AND 631792
names 630781
Blue 630469
fans 630037
Mus@@ 629906
hood 629581
ues 629509
surface 629477
ada 629226
uck@@ 628852
Hel@@ 628850
appro@@ 628728
father 628628
compared 628474
yl 628200
engine 628083
biggest 627892
avoid 627840
tivity 627541
expect 627471
10.@@ 627159
View 626784
tal@@ 626205
dining 626117
century 626074
driver 625891
aut@@ 625669
pieces 625493
aine 625158
spot 625032
yard 624526
ye 624250
rock 623999
journey 623670
Water 623155
thers 623097
Germany 622933
wrong 622817
Press 622707
ude 622624
feet 622517
developing 622214
values 621591
doors 621582
pal@@ 621347
effort 621242
pot@@ 621135
ense 621021
Flo@@ 620774
pon@@ 620688
pan@@ 620584
effects 620515
installation 620127
document 620000
aps 619945
documents 619924
fore@@ 619806
ff 619459
AC 619127
myself 619047
rich 618599
gg@@ 618454
5% 618376
lab@@ 618263
federal 617948
ax 617887
disease 617811
north 617805
useful 617373
vic@@ 617170
oring 616757
funds 616645
onal 616546
train 616393
character 616302
Adv@@ 616145
ST 616055
George 615895
department 615879
CO 615842
replace 615567
IP@@ 615553
shower 615536
inner 615329
turned 615095
pain 614973
2000 613590
interview 613338
roc@@ 613224
Commission 613129
ef 613110
The@@ 612820
eu@@ 612413
tis@@ 612009
updated 611941
investig@@ 611468
exactly 611419
ports 611368
atives 611281
wine 611122
placed 611103
custom@@ 611043
standards 611025
rup@@ 610861
Any 610676
Museum 610210
master 610123
ett@@ 609810
appl@@ 609757
ables 609480
impl@@ 609260
Microsoft 609157
ich 608846
Air@@ 608269
repair 608190
wa@@ 608167
demand 607938
People 607907
iss@@ 607728
identi@@ 607641
meas@@ 607366
showing 607001
Media 606716
bedroom 606456
changing 606423
lev@@ 606228
BA 606087
;@@ 606085
cancer 605906
arm 605710
70@@ 605608
tried 605547
ush@@ 605501
nation 605379
nor 605371
Arts 605360
draw@@ 605356
stre@@ 605316
lose 605050
\@@ 604944
memory 604779
testing 604589
About 604530
Twitter 604467
ET@@ 604316
eas@@ 604236
camera 604234
Mi@@ 604051
100@@ 603943
AG@@ 603809
cles 603172
Hu@@ 603041
War 602950
supported 602835
contains 602756
pp@@ 602471
e.@@ 602148
category 602126
Ham@@ 602125
tex@@ 602117
esh 602016
plan@@ 601327
uro@@ 601027
mechan@@ 600937
wrote 600658
C. 600626
joined 600480
lies 600160
vention 599880
multi 599543
spring 599469
Loc@@ 599078
models 599054
tun@@ 599022
organizations 598949
aling 598918
stuff 598730
Women 598658
chain 597734
Review 597695
secure 597660
sometimes 597600
primary 597458
Many 597326
illed 597315
Don@@ 597050
communities 596953
evidence 596803
ision 596717
workers 596252
tiv@@ 595917
complex 595895
Police 595570
48 595245
studies 595144
Fil@@ 594982
ells 594962
artist 594754
ub 594725
flu@@ 594709
So@@ 594553
Contact 594468
shared 594465
300 594278
ta@@ 594205
central 594204
Master 594103
serving 594098
adap@@ 593442
Manager 592864
34 592352
integr@@ 592028
issued 591931
background 591781
play@@ 591642
itor 591587
Chicago 591448
Go 591386
EU 591276
approved 590818
CR@@ 590709
Pay@@ 590625
courses 590571
some@@ 590346
Camp@@ 590215
aining 590112
hear@@ 590049
AN 590031
himself 590012
shopping 589577
ased 589244
beach 588674
"@@ 588308
experts 588078
alone 587895
achieve 587686
uring 587634
She@@ 587590
Star 587584
ector 587449
eight 587304
assi@@ 587187
officials 587062
Festival 586967
seem 586728
inger 586590
info 586582
Co. 586568
foreign 586527
graduate 586476
aware 586393
sign@@ 586310
Food 586127
normal 585858
Robert 585850
profile 585639
show@@ 584868
immediately 584813
top@@ 584634
Energy 584488
fan 584236
At@@ 584212
independent 584147
helped 583868
operating 583822
properties 583459
hur@@ 583411
ti 582933
Pro 582864
maintenance 582790
experiences 582456
score 582428
q 582350
qualif@@ 582321
Coo@@ 581729
During 581507
ona 580796
Do@@ 580397
IA 580271
moved 580268
--@@ 580146
eless 580110
kes 579887
berg 579851
loan 579821
min 579815
ove 579642
SS@@ 579616
Appl@@ 579511
Learn 579304
core 578965
non@@ 578729
vot@@ 578676
quarter 578275
ument 578266
Smith 578227
load 577916
particularly 577895
classes 577813
Tal@@ 577624
VE 577153
electric 576871
teaching 576775
100% 576640
detail 576320
Mov@@ 576298
records 576213
gain 576178
wear 575970
Ken@@ 575263
yr@@ 575066
Network 575054
cell 574439
repe@@ 574249
carry 574246
powerful 574231
Sil@@ 574177
soft 574125
enter@@ 574096
album 573973
2005 573794
theme 573686
Av@@ 573684
ades 573408
eted 572991
Although 572844
prevent 572411
Call 572320
R. 572320
survi@@ 572309
run@@ 572274
itting 572207
OR 572045
yes 571926
parties 571635
lat@@ 571581
format 571468
corner 571445
fy 571274
calcul@@ 571147
55 571022
bag 571014
adv@@ 570690
199@@ 570066
Ru@@ 570021
rap@@ 569725
cas@@ 569323
square 569186
DC 569173
web@@ 568508
ith@@ 568387
ips 567981
mor@@ 567823
voice 567771
ok 567706
daughter 567573
Lin@@ 567462
economy 566835
Amazon 566730
Pan@@ 566635
oned 566616
Asia 566487
Jer@@ 566457
connected 566284
lights 566175
enh@@ 566011
population 565813
Es@@ 565551
election 565160
minimum 565117
cars 565040
down@@ 564779
mi@@ 564717
ata 564526
claims 564388
cleaning 564141
usion 564101
mix 564033
mill 563973
Pen@@ 563900
template 563767
mine 563689
attack 563559
ben@@ 563284
Israel 563276
AS 563242
mining 563197
restaurant 563054
ich@@ 563051
ony 561897
ix 561744
Series 561674
ston 561672
videos 561662
district 561521
break@@ 561482
nor@@ 561243
university 561045
therapy 560961
http://@@ 560687
Por@@ 560569
entary 560470
ide@@ 560088
Lea@@ 560040
scre@@ 559958
wea@@ 559885
ban@@ 559798
Sen@@ 559682
remain 559526
plants 559481
ign 559299
assist 559160
ate@@ 559150
posts 558814
partners 558590
register 558501
SO@@ 558002
eyes 557843
DO@@ 557736
perform 557362
unch 556843
essing 556662
ened 556503
Hill 556474
seat 556429
90@@ 556412
ender 556339
high@@ 556125
=@@ 555406
conc@@ 555306
with@@ 555151
balance 555137
TO@@ 555120
Mat@@ 555097
med 554992
qui@@ 554842
plastic 554803
ials 554681
feeling 554372
win@@ 554349
sid@@ 554348
ives 554254
generation 554253
liter@@ 554006
saf@@ 553894
asts 553786
Mod@@ 553678
advantage 553445
ump@@ 553377
launched 553304
Because 553257
acqu@@ 552890
bet@@ 552878
34@@ 552815
ort@@ 552748
cold 552725
stic 552670
ules 552489
lighting 552408
ishes 552402
aw 552110
Full 552004
cam@@ 551884
draw 551866
SA 551757
winter 551596
TO 551443
exchange 551421
loved 551229
broad@@ 550738
markets 550717
idge 550677
ink@@ 550597
Western 550562
ligh@@ 550479
comfortable 550477
speak 549935
heavy 549734
facility 549716
Real 549567
van@@ 549453
looked 549350
reference 549248
fair 548953
iness 548589
flight 548565
Peter 548554
bill 548437
MO@@ 547840
spir@@ 547834
Net@@ 547651
Over@@ 547600
lu@@ 547597
Mary 547473
error 547385
LL@@ 547230
.com/@@ 546847
essential 546663
Dep@@ 546629
installed 546366
km 546287
uty 546122
uck 545942
Market 545862
ags 545776
spon@@ 545597
wid@@ 545297
fu@@ 545189
greater 545052
easier 545050
tab@@ 544583
pul@@ 544239
challenges 544207
Ass@@ 544119
specif@@ 544065
guests 544026
ric@@ 543956
trac@@ 543544
E. 543194
divid@@ 542984
Cha@@ 542958
super 542788
seconds 542698
arrang@@ 542670
definitely 542601
AP 542440
Star@@ 542436
Lord 542387
tickets 542307
described 542228
Royal 542182
happen 542004
fication 541984
38 541504
appeared 541426
executive 540918
meaning 540884
progress 540877
visitors 540837
CL@@ 540709
Tran@@ 540704
ato 540536
ancing 540323
Each 540293
reasons 540201
Christian 540183
arg@@ 540060
ros@@ 540051
units 539809
Cup 539701
optim@@ 539462
leadership 539214
eries 539204
goods 538760
professionals 538467
ify 538283
warm 538069
37 537952
invol@@ 537725
aj@@ 537690
Law@@ 537579
topic 537520
indic@@ 537375
Pic@@ 537352
Show 537267
bers 537249
CEO 536185
otherwise 536154
cities 536024
trust 535843
Another 535743
ideal 535489
path 535260
stor@@ 535163
tile 535128
rise 535079
Room 534910
adi@@ 534534
ography 534444
ull 534399
Special 534312
eling 534276
practices 534010
mit 533982
Part@@ 533898
figure 533683
wants 533675
promote 533247
Work@@ 533224
inform@@ 533091
provider 533072
maximum 533066
org@@ 533034
oph@@ 532906
German 532836
onto 532743
stration 532427
distance 532422
alty 532034
ession 532026
expert 531910
methods 531822
ections 531754
canc@@ 531634
coach 531373
ED@@ 531331
discussion 531222
movement 531124
treat 530947
Det@@ 530937
wards 530789
Thomas 530749
Russia 530614
alized 530598
Coll@@ 530560
sue 530402
continued 530289
High@@ 530117
runs 530105
Android 529991
hard@@ 529916
val 529854
Library 529824
Red@@ 529370
aud@@ 529259
Los 529080
Ev@@ 528773
Super@@ 528750
esses 528726
gate 528610
2,@@ 528562
amed 528506
ood@@ 528334
length 527917
organ@@ 527826
care@@ 527782
mel@@ 527524
maintain 527360
finding 527308
straight 526422
Med@@ 526233
detailed 525925
predic@@ 525800
Academy 525782
oss 525615
duc@@ 525398
CE@@ 525243
lin 525094
filled 525072
cy 525035
registration 524758
critical 524228
Hon@@ 524092
La@@ 524069
alist 523885
fir@@ 523865
une 523835
Ow@@ 523560
anda 523416
B. 523171
ibility 523125
housing 522650
pet 522491
Mobile 522409
winner 522212
techn@@ 522128
ock@@ 522112
raise 521828
formed 521642
j 521642
Hom@@ 521524
Even 521299
handle 520494
uk 520268
L. 520155
anger 520139
uation 519646
alls 519094
except 518935
mentioned 518732
serious 518689
Rol@@ 518203
ests 518120
Town 518092
Bul@@ 518045
wil@@ 517887
PL@@ 517734
African 517593
TS 517557
ts@@ 517486
eption 517419
Christ@@ 517310
buying 516969
Tw@@ 516885
medium 516818
gone 516722
39 516525
Kar@@ 516460
hop@@ 516214
fees 516103
dam@@ 516061
cm 515967
Old 515923
psych@@ 515767
rely 515717
lip 515680
IF@@ 515535
tory 515338
separ@@ 515319
CC 515254
stores 515100
ola 514718
ala 514646
3rd 514627
Ul@@ 514565
drug 514449
ough@@ 514336
ider 514228
Jud@@ 514104
hospital 514096
bri@@ 513928
sus 513885
Christ 513725
articles 513581
tioning 513436
atures 513328
administration 513226
raised 513120
direction 513039
multi@@ 512996
Cle@@ 512867
adjust@@ 512856
efficient 512792
grand@@ 512742
IC 512703
industrial 512689
database 512357
Bill 512178
dark 511923
DE@@ 511746
ician 511476
posi@@ 511322
aking 511196
ote 511191
girl 510917
sym@@ 510777
Mur@@ 510717
supporting 510553
stream 510142
Work 510028
To@@ 510013
ern@@ 509720
flav@@ 509364
Code 509350
ez@@ 509336
teacher 508875
society 508678
fight 508649
Ireland 508501
refl@@ 508486
Or 508419
previously 508270
calls 508246
unless 508237
employment 508230
island 508169
CD 507928
strong@@ 507866
arian 507767
pack 507562
attend 507331
felt 507256
library 506938
talking 506757
succ@@ 506500
cheap 506349
Mem@@ 506327
Gir@@ 506302
Over 506125
shipping 506032
scene 506006
2004 505930
classic 505928
elements 505913
ita 505893
37@@ 505482
oods 505273
Grand 505144
ota 504965
ank 504671
awesome 504611
eful 504347
essi@@ 504233
chief 504167
gun 503853
phys@@ 503830
colors 503796
approximately 503745
eline 503450
sweet 503266
smo@@ 503240
assistance 503028
Organ@@ 502938
showed 502848
kit 502748
usual 502685
Children 502558
Canadian 502451
BO@@ 502255
AR 502151
ride 502102
Sand@@ 501969
ree 501968
laws 501682
Class 501656
CB@@ 501378
acting 501341
Port@@ 501247
respect 501199
east 501191
toward 501131
doc@@ 500911
Boo@@ 500654
ensive 500553
cent@@ 500441
programme 500261
William 499869
water@@ 499856
Price 499841
ential 499838
Welcome 499734
paint 499590
lovely 499468
dres@@ 498980
presentation 498972
PO@@ 498727
ined 498715
suppl@@ 498375
writer 498321
95 498213
Ret@@ 498051
ener@@ 498051
audience 497952
arms 497914
tionally 497849
advance 497656
Russian 497534
managed 497145
itter 496886
designs 496877
conver@@ 496702
eing 496461
Set 496415
Search 496147
separate 496126
Electr@@ 496042
promis@@ 496029
aching 495816
locations 495701
SE 495307
viewed 495277
OF 495175
Leg@@ 495029
lack 494783
Brown 494747
count 494559
micro@@ 494530
bit@@ 494392
peace 494301
county 494153
thousands 493908
battery 493689
proce@@ 493389
Rom@@ 493332
Mexico 493282
whe@@ 493209
environmental 492983
45@@ 492824
Buy 492798
Digital 492777
Cop@@ 492584
oral 492343
ani 491919
temperature 491843
Chief 491748
aim 491745
cher 491713
Nic@@ 491651
Engineering 491526
artists 491333
caused 491275
resource 491132
ared 491032
trading 490777
PR@@ 490281
appointment 490237
anced 489791
Plan 489719
iPhone 489599
42 489593
prepared 489501
Long 489373
parking 489288
ille 489259
explore 488891
mp@@ 488866
internal 488833
focused 488823
kets 488592
icial 488407
eration 488306
ll 487972
ark@@ 487892
miss 487864
delivered 487818
Chris 487581
swe@@ 487291
cream 487280
calling 487099
rier 486913
conv@@ 486861
vers@@ 486857
enable 486530
proud 486492
Hospital 486393
sources 486248
é 486004
reli@@ 485976
tagged 485893
zed 485872
ees 485714
audio 485504
antly 485368
marks 485295
injury 485207
eam 485160
gh@@ 485005
combination 484775
iver@@ 484574
44 484516
Live 484442
shape 484438
football 484096
certainly 484075
Win@@ 484065
Control 484004
ena 483944
radi@@ 483477
dat@@ 483416
attrac@@ 483337
occup@@ 483029
husband 482991
Bud@@ 482852
Ca@@ 482766
ty@@ 482766
updates 482666
History 482618
Tel@@ 482603
Spec@@ 482491
larger 482434
Ren@@ 482315
committee 482118
ban 482110
cycle 481986
Oc@@ 481856
reserv@@ 481303
lad@@ 481180
mitted 481047
waiting 480922
eding 480878
May@@ 480389
increasing 480389
policies 480105
ew 479860
fix 479827
concept 479796
compos@@ 479768
000@@ 479719
truly 479627
exercise 479434
SU@@ 479364
jun@@ 479256
visiting 479069
new@@ 479051
65 479015
claimed 478936
Japanese 478653
edition 478456
exciting 478385
windows 478273
reached 478228
proper 478191
anim@@ 478047
CP@@ 478045
22@@ 477975
scr@@ 477959
au 477915
Auth@@ 477901
Point 477867
engineering 477821
partnership 477430
achiev@@ 477281
accept 476931
Like 476625
contribu@@ 476563
stat@@ 476531
beauty 476193
govern@@ 476144
ule 476099
Wi@@ 475510
Support 475410
applied 475324
mic@@ 475311
dinner 474927
abl@@ 474862
determine 474779
till 474565
transl@@ 474501
oven 474341
Only 474120
proof 473821
195@@ 473743
eters 473593
astic 473582
afternoon 473417
exam@@ 473407
inspired 473403
prepare 473337
sel 473144
outs 473095
Executive 473045
employee 472970
ians 472930
climate 472922
sou@@ 472853
mode 472798
sun 472737
Fo@@ 472691
holding 472666
TE@@ 472604
Before 472523
Acc@@ 472450
edy 472346
Cent@@ 472309
itch 472257
Associ@@ 472157
da 472023
ym@@ 471951
processes 471705
exhi@@ 471614
But@@ 471466
Vir@@ 471350
gres@@ 471296
HP 471263
trial 471183
cultural 471154
radio 471105
regul@@ 471083
Dri@@ 470898
diagno@@ 470827
ri 470802
incl@@ 470777
exclusive 470749
instr@@ 470741
bought 470601
Cri@@ 470326
solid 470274
alternative 470209
despite 470096
long@@ 470050
boat 469986
Insurance 469952
ski 469877
identify 469822
formation 469607
fields 469519
combined 469451
400 469355
holders 469179
initi@@ 468962
list@@ 468696
HS 468579
Small 468571
3/@@ 468570
kn@@ 468461
ested 468455
recipe 468394
bridge 468291
icians 468153
performed 468122
pil@@ 468107
rule 468072
waste 468059
itors 467699
perhaps 467650
Wat@@ 467392
tin 467213
Bor@@ 466784
apped 466718
interior 466711
wind 466653
Should 466588
covers 466395
1:@@ 466349
mond 466346
boy 466315
Conn@@ 466235
pair 465992
DA@@ 465732
celebr@@ 465681
arity 465423
object 465153
auth@@ 465148
Machine 465131
S.@@ 465091
tech 465053
missing 464745
HT@@ 464638
Mel@@ 464627
construc@@ 464627
notes 464621
2003 464353
ames 464176
H. 464066
Au@@ 464049
pain@@ 464005
happened 463981
Congress 463894
ention 463784
P. 463769
deal@@ 463416
Human 463386
64 463334
ought 463317
net@@ 463298
iron 463282
becoming 463242
chem@@ 463176
fly 462974
guest 462967
Crusher 462862
technologies 462746
Systems 462626
fle@@ 462401
lear@@ 462304
tered 462281
Federal 462252
MS@@ 462118
Sn@@ 462103
coloring 461978
Sm@@ 461905
volume 461866
Martin 461747
channel 461364
ue@@ 461276
vehicles 461080
brow@@ 461064
peri@@ 461054
ere@@ 460797
journ@@ 460636
Page 460598
IB@@ 460581
cloud 460550
innovative 460420
augh@@ 460386
Her 460385
ition 460221
emergency 460199
App@@ 460000
Did 459740
ship@@ 459673
GO@@ 459474
manufac@@ 459405
upcoming 459396
comprehensive 459389
que@@ 459383
leaving 459300
academic 459243
tem@@ 459236
ca@@ 459225
bot@@ 458974
aser 458798
eled 458264
domin@@ 458133
vers 458017
acti@@ 457922
tically 457916
teachers 457609
ticket 457546
regional 457423
rer 457389
conn@@ 457250
.org 457167
ins@@ 457167
Training 456907
monthly 456872
za 456467
survey 456432
starts 456392
fashion 456211
Regi@@ 456101
itable 455652
Cer@@ 455563
kin 455483
edited 455325
charges 455181
Champ@@ 455173
oma 455121
icks 454996
nutri@@ 454935
featured 454934
contr@@ 454630
ided 454627
Financial 454581
decide 454516
stry 454419
bes@@ 454305
mul@@ 454133
sample 454055
Compl@@ 453998
fixed 453958
Quality 453900
eper 453885
ini 453774
fuel 453716
log 453541
ran 453392
agent 453383
atter@@ 453330
Marketing 453320
proposed 453285
retail 453265
Zealand 452849
license 452735
league 452662
+@@ 452400
initial 452318
continues 452260
consult@@ 452258
Ash@@ 452193
entered 452123
mid 452016
W. 451977
800 451963
Paris 451891
actual 451870
spending 451861
Log@@ 451743
deals 451640
remains 451634
Ltd. 451612
ified 451552
engine@@ 451420
onom@@ 451382
amb@@ 451368
Italy 451357
phones 451100
discount 451077
iled 450909
seeking 450863
older 450785
clean@@ 450676
age@@ 450468
schol@@ 450329
Me 450238
downlo@@ 450119
craf@@ 449811
Super 449616
educational 449600
suitable 449561
expensive 449351
coverage 449246
fru@@ 449204
poor 449149
Mike 449099
Co 449095
Produc@@ 448983
activ@@ 448909
ols 448869
therefore 448729
ces 448469
aph@@ 448343
iss 448340
view@@ 448207
Play 448148
bury 448076
oice 448012
On@@ 447903
measures 447792
Game 447786
tes 447454
recommended 447419
smart 447395
Angeles 447255
fur@@ 447188
Every 447002
ange 446826
ode 446798
tis 446664
electronic 446644
Inv@@ 446275
forget 446114
DA 445980
hearing 445978
transp@@ 445910
Local 445865
cing 445814
Times 445669
sounds 445635
holds 445591
sor 445347
uments 445203
shares 445127
gallery 444939
by@@ 444621
dep@@ 444589
bles 444508
ech 444327
tle 444191
collabor@@ 444168
West@@ 444124
Area 444105
cros@@ 444000
lands 443794
ella 443752
featuring 443625
ayer 443530
sequ@@ 443460
Hi 443330
vo@@ 443290
acked 443109
charged 443073
automatically 443024
Sl@@ 442993
inj@@ 442899
aring 442879
abilities 442768
houses 442758
recru@@ 442715
aft 442187
ean 442164
strength 442109
igation 442049
solar 441964
Site 441878
amin 441836
EM@@ 441728
Building 441699
them@@ 441645
Provid@@ 441643
fourth 441632
Inf@@ 441611
walking 441350
Watch 441146
ven 441115
Cab@@ 441020
participants 440964
rob@@ 440938
La 440703
og 440464
birthday 440455
Report 440132
Lee 440081
http://www.@@ 440059
Publ@@ 440056
parti@@ 439925
oe 439794
faces 439751
taste 439709
submit 439500
nur@@ 439403
accounts 439373
cro@@ 439291
01 439058
PS@@ 438892
Ho@@ 438779
appears 438749
acted 438710
beat 438673
burg 438478
airport 438344
Professor 438301
Gal@@ 438171
dead 438072
ari 438033
tea 438008
candidates 437960
Every@@ 437919
flat 437832
Video 437795
Oil 437715
Table 437675
eller 437574
3D 437565
yesterday 437470
presence 437389
TE 437271
FREE 437196
village 437053
zen 437047
ord 437033
Place 436953
Richard 436896
ror 436783
arts 436730
joint 436582
Cas@@ 436473
girls 436377
dance 436181
Tim@@ 436116
SS 435577
div@@ 435513
itz@@ 435434
enjoyed 435431
Dre@@ 435290
Tre@@ 435267
clin@@ 435084
gro@@ 435066
sky 434934
limit 434908
one@@ 434844
fantastic 434832
intern@@ 434739
ag 434692
Techn@@ 434619
Guide 434522
Scott 434372
domain 434163
Ni@@ 433744
oul@@ 433624
bike 433620
» 433525
Under@@ 433510
bab@@ 433510
aker 433387
Light 433267
Bet@@ 433068
sent@@ 433013
Mul@@ 432996
’. 432961
utes 432600
sugar 432477
Tom 432468
abor@@ 432360
Whether 432277
concerns 432254
Mu@@ 432196
route 432105
е@@ 432069
allowing 432057
requires 431929
oes 431841
Rock 431835
sa 431785
ece 431765
yn 431749
resol@@ 431742
48@@ 431724
ula 431635
Donald 431469
bility 431425
SH@@ 431398
Tor@@ 431191
apping 431094
Spring 430985
sey 430829
concrete 430802
rap 430742
creation 430707
functions 430497
gather@@ 430440
laun@@ 430354
han 430232
Virginia 430228
bol@@ 429754
comfort 429687
iced 429603
factors 429576
techniques 429496
Pacific 429355
organiz@@ 429255
manufacturing 429214
specifically 429008
Ger@@ 429004
wing 428965
gradu@@ 428878
hire 428859
ME 428618
Help 428547
encing 428544
cutting 428344
ori@@ 428254
Back 428149
stop@@ 428112
Web@@ 428109
berry 428088
Hou@@ 427991
brain 427987
defined 427798
sleep 427406
putting 427356
sort 427301
returned 427272
ops 427166
icate 427160
introduced 427059
Expl@@ 427039
officer 426991
Part 426910
bling 426583
PDF 426466
rol@@ 426405
Hal@@ 426288
participate 426227
excited 426127
tan@@ 425975
evol@@ 425901
Gi@@ 425690
49 425673
41 425564
stress 425509
influ@@ 425505
Boston 425242
insul@@ 425044
ope 424927
Man 424919
kept 424874
Head 424716
measure 424641
knew 424496
Fire 424233
enced 424114
Ideas 424014
Obama 423992
tit@@ 423977
plenty 423922
icon 423702
visitor 423492
colour 423490
39@@ 423487
cheese 423359
task 423255
guys 423211
Rep@@ 423041
watching 422906
icated 422897
elled 422758
subscri@@ 422588
bert 422546
Using 422495
Ste@@ 422391
igh 422352
facing 422260
recogn@@ 422123
Suppl@@ 422105
ris 421991
majority 421984
bon@@ 421914
spread 421875
agreed 421789
bun@@ 421721
thre@@ 421562
Stat@@ 421553
reality 421486
experim@@ 421403
Pa@@ 421076
tif@@ 421060
committed 420990
struction 420825
DI@@ 420723
gover@@ 420706
FC 420626
learned 420524
Ear@@ 420472
replacement 420443
tification 420369
Direc@@ 420300
Mos@@ 420123
ocks 420063
Play@@ 420052
killed 419967
cling 419898
bed@@ 419848
fro@@ 419840
aren@@ 419810
mist@@ 419752
manufacturer 419722
trig@@ 419679
Card 419647
lined 419633
nine 419571
asted 419382
numerous 419359
Plus 419328
scheduled 418970
orial 418926
oid 418908
confirmed 418704
Ep@@ 418697
imag@@ 418649
Station 418588
generally 418540
erc@@ 418447
websites 418316
vac@@ 418217
celebrate 418132
collaboration 418128
zone 418032
path@@ 417971
distribution 417899
es’ 417659
150 417540
Join 417520
Happy 417484
strategies 417478
resolution 417467
sessions 417340
sole 417211
yers 417061
Airport 416830
ayed 416769
youth 416654
switch 416574
Eff@@ 416501
brands 416442
lic@@ 416439
components 416258
affordable 416222
rown 416205
consul@@ 416175
victory 415943
scored 415924
character@@ 415842
43 415651
lar@@ 415632
ingham 415495
Awards 415489
U.@@ 415234
cake 415145
whom 414953
phil@@ 414858
thor@@ 414722
alism 414600
main@@ 414592
Earth 414542
importance 414488
Carolina 414427
lion 414351
Que@@ 414346
thus 414300
Dun@@ 414228
Northern 414138
Middle 414109
vit@@ 414106
2-@@ 414078
Bon@@ 413965
drink 413911
tax@@ 413911
remin@@ 413850
Italian 413785
premi@@ 413693
contrac@@ 413673
2002 413526
investigation 413460
ially 413429
asking 413308
Some@@ 413281
responsibility 413209
47 413155
Sup@@ 413153
Mid@@ 413097
contin@@ 413071
HD 413068
illa 413046
Fur@@ 412991
pattern 412857
trust@@ 412848
associ@@ 412809
class@@ 412624
consumer 412612
settings 412556
concentr@@ 412554
opinion 412547
filed 412450
feedback 411925
infrastructure 411816
ae 411762
Three 411712
shel@@ 411701
transport 411583
alization 411529
advertising 411464
sh 411394
restric@@ 411347
pun@@ 411318
providers 411287
Spr@@ 411281
Wall 410904
forces 410876
campus 410838
Tom@@ 410765
extremely 410756
Cir@@ 410556
cabinet 410484
studio 410445
eed 410289
moun@@ 410280
Johnson 410271
nel 410154
Progr@@ 410146
lunch 410140
TA 410126
nation@@ 410080
List 410023
condi@@ 409981
pop 409806
appointed 409687
Ven@@ 409551
Sports 409544
Black@@ 409514
Step 409321
Southern 409065
bringing 409002
every@@ 408984
characters 408922
missions 408563
istics 408406
ump 408357
Tro@@ 408352
а@@ 408310
Bea@@ 408306
whatever 408241
Out 408127
brings 408117
discipl@@ 408105
Dem@@ 408010
Bar 407856
awarded 407762
workshop 407741
auc@@ 407646
affili@@ 407484
motion 407463
p. 407391
candidate 407294
festival 407247
dates 407191
Ir@@ 407129
NY@@ 407122
supports 407076
gen 407028
champ@@ 406990
inal 406943
modi@@ 406886
apps 406858
holder 406810
Exc@@ 406733
rid 406553
cup 406493
ost 406475
Students 406166
4th 406043
ingredients 405963
helpful 405950
purposes 405815
faith 405783
oga 405625
ems 405615
farm 405610
plate 405538
econom@@ 405450
Hand@@ 405443
act@@ 405384
ogue 405359
dream 405339
persons 405300
mal 405283
tar@@ 405261
Store 405239
instructions 405046
Mac 405017
buil@@ 404893
Lou@@ 404832
smaller 404724
animals 404696
App 404623
Pur@@ 404531
speaking 404516
ult 404485
luxury 404456
pp 404331
maker 403850
ml 403793
distribu@@ 403746
van 403746
revenue 403610
diam@@ 403477
ume 403381
Division 403122
Spanish 403026
implementation 403012
foot@@ 403003
ju@@ 402985
Save 402816
Oh 402587
soci@@ 402331
eth 402258
Professional 402153
Website 401931
Right 401843
assessment 401659
Santa 401656
servation 401620
recorded 401610
cool@@ 401591
2001 401572
topics 401347
rid@@ 401331
cable 401302
Trust 401221
ham@@ 401124
agon 401089
Young 401008
tage 400994
encourage 400757
trees 400671
ora 400626
ander 400555
bled 400530
Sale 400501
Steel 400497
Sus@@ 400412
flowers 400364
busy 400217
regi@@ 400028
tran@@ 399838
ext@@ 399834
positions 399737
PC@@ 399671
negoti@@ 399670
Little 399669
streng@@ 399542
adults 399522
Car 399429
hu@@ 399265
expertise 399175
stars 399150
Software 399144
minim@@ 399094
animal 399082
ots 398933
pro 398905
happ@@ 398851
Line 398636
output 398579
75@@ 398552
rics 398544
bil@@ 398501
craft 398361
aves 398260
qualified 398181
explain 398089
tel@@ 398062
stic@@ 398041
Annual 398032
sides 398022
ield 397951
asters 397878
carried 397669
buildings 397587
mean@@ 397585
aste 397486
Shop 397445
pping 397246
essay 397240
worldwide 397207
uel 397197
ived 397083
K. 397039
tig@@ 396905
founder 396830
dom 396750
bowl 396717
config@@ 396679
veter@@ 396670
Clin@@ 396667
impres@@ 396499
you@@ 396491
spe@@ 396487
lec@@ 396437
portion 396435
Ur@@ 396420
anner 396325
rental 396301
pec@@ 396196
missed 396113
agencies 396045
silver 396014
dre@@ 395959
surrounding 395610
requ@@ 395598
Both 395435
lot@@ 395347
border 395344
defin@@ 395291
reve@@ 395265
cle@@ 395228
clearly 394800
exhibition 394571
sit 394507
sy 394446
efficiency 394441
coordin@@ 394407
rain 394371
command 394339
Gener@@ 394175
meal 393910
bly 393888
gle 393826
Living 393775
Garden 393764
Def@@ 393757
flow@@ 393754
songs 393749
renew@@ 393722
pep@@ 393663
a.@@ 393648
shor@@ 393401
competitive 393220
thy 393130
Stone 393051
accepted 392929
Products 392845
ren 392734
ushing 392716
ung 392652
receiving 392592
evalu@@ 392403
payments 392090
interests 392074
Luc@@ 392031
itory 391970
о@@ 391891
Fund 391888
osp@@ 391875
CE 391847
earing 391813
lam@@ 391755
Autom@@ 391749
Under 391616
counts 391455
dogs 391424
GB 391414
fav@@ 391388
ws 391295
LE 391275
Looking 391198
Jersey 391150
infl@@ 391050
ural 390953
Singapore 390562
red@@ 390433
Manufac@@ 390325
cru@@ 390282
delicious 390137
happens 390052
improvement 389924
clinical 389910
fare 389910
default 389855
compr@@ 389546
Dol@@ 389515
bound 389503
Secretary 389489
Week 389474
confidence 389448
Michigan 389399
makers 389398
river 389386
aying 389345
ton@@ 389331
tests 389259
competi@@ 389085
assets 388919
erve 388918
Prov@@ 388853
failed 388828
Ra@@ 388601
etary 388589
depending 388581
commitment 388536
hosting 388531
|@@ 388521
Coast 388339
Ohio 388337
leaves 388260
cells 388188
Order 388042
debt 388026
stick 387875
Senior 387847
aspects 387807
Den@@ 387786
Steve 387663
earth 387643
revealed 387634
tour@@ 387506
voc@@ 387502
ML@@ 387412
46 387215
Consul@@ 387205
terr@@ 387117
iter@@ 386990
Der@@ 386833
Spe@@ 386792
angle 386779
ook 386664
discover 386648
painting 386621
Keep 386418
EE@@ 386364
sist@@ 386252
conduct 386163
finance 386107
remote 386029
expec@@ 385977
ba 385971
Games 385962
thro@@ 385948
control@@ 385742
sim@@ 385661
awareness 385629
65@@ 385452
ao 385424
M.@@ 385399
benef@@ 385152
eating 385056
covering 384966
Proc@@ 384786
Dist@@ 384753
mir@@ 384430
eman 384413
eter@@ 384295
influence 384259
Saf@@ 384158
milk 384148
CC@@ 384005
boards 384004
Summer 383878
ald 383772
cat 383367
Photo 383339
thoughts 383337
North@@ 383194
reliable 383138
extensive 383065
pt 383051
noted 382818
dress 382799
Sea 382786
55@@ 382751
exten@@ 382660
arri@@ 382566
doctor 382539
Customer 382470
examples 382453
eland 382304
ody 382251
consist@@ 382236
Ministry 382071
planned 382071
dead@@ 382028
Jones 381990
chicken 381892
ows 381818
ME@@ 381816
FA@@ 381794
membership 381786
hes@@ 381699
°@@ 381649
San@@ 381561
particip@@ 381526
roof 381490
leads 381398
birth 381248
breakfast 381130
procedures 380984
Drive 380876
residential 380850
™ 380760
Advis@@ 380670
Learning 380646
purchased 380608
idents 380584
tual 380488
Arti@@ 380462
obtain 380252
(s 380154
Sou@@ 380154
practical 380148
decisions 380115
organic 380073
mostly 380009
oration 379831
kins 379814
home@@ 379626
alities 379558
urban 379432
Blo@@ 379340
NY 379197
ushed 379186
mur@@ 379092
improved 378923
Gallery 378895
recovery 378844
Respon@@ 378808
fying 378802
investors 378799
clim@@ 378732
neighb@@ 378720
Lat@@ 378403
establ@@ 378376
Mill 378334
Jam@@ 378234
ced 378151
Policy 378035
Spain 378023
docum@@ 377976
BI 377972
successfully 377850
magazine 377783
Cro@@ 377780
officers 377753
stit@@ 377626
NOT 377553
mini 377389
Joe 377320
married 377100
aled 377078
Limited 377002
Medicine 376935
T. 376819
Charles 376648
totally 376621
behavi@@ 376498
nomin@@ 376474
iles 376268
innovation 376124
brother 375747
Green@@ 375723
past@@ 375696
eded 375640
Al 375562
sof@@ 375514
TC 375469
pet@@ 375358
UL@@ 375303
grant 375233
bath 375209
drivers 375181
catch 374993
illustr@@ 374952
ado 374938
ron 374915
poly@@ 374789
Sav@@ 374775
izes 374649
Private 374638
Contin@@ 374586
Would 374552
bo 374550
All@@ 374496
Box 374479
conducted 374476
88@@ 374469
machines 374434
forced 374307
goo@@ 374282
hosted 374246
pan 374212
depth 374133
native 374114
A.@@ 374042
Pack@@ 374027
Prime 374008
reporting 373998
aints 373912
etry 373888
ishment 373788
Safety 373756
anna 373651
motiv@@ 373457
ican 373326
camp 373294
council 373110
mol@@ 373071
LLC 373060
Il@@ 373012
itted 372948
ld@@ 372882
fied 372822
Section 372780
underst@@ 372210
tie 372173
viewing 372161
Wind@@ 372120
porters 372063
awards 371754
mand@@ 371714
description 371701
meetings 371565
cin@@ 371556
appearance 371293
affected 371269
identified 371234
cos@@ 371214
bon 371103
affect 370931
gent@@ 370864
slow 370779
external 370721
attempt 370663
input 370399
invited 370370
sting 370359
Product 370285
absolutely 370238
species 370207
ption 370165
hardware 370082
sheets 370081
saving 370078
suggest 370045
igning 369999
eak 369991
priv@@ 369966
Ram@@ 369809
behalf 369800
announce 369647
paying 369425
fix@@ 369255
erson 369226
joining 369132
Agency 369094
Sun 369065
ardi@@ 368872
negative 368863
yo 368827
domestic 368709
spl@@ 368696
List@@ 368685
ograph@@ 368653
ger@@ 368642
gin 368595
yed 368588
properly 368437
contain 368432
camp@@ 368417
founded 368276
odi@@ 368058
feed 368043
vey 368032
ken 367981
tables 367828
authority 367776
NS@@ 367763
Andrew 367749
3-@@ 367715
minister 367689
G. 367679
bec@@ 367671
forum 367638
Posted 367610
isation 367345
ucks 367331
Lim@@ 367305
Nov@@ 367239
oug@@ 366880
/0@@ 366834
Ang@@ 366818
chocolate 366665
wi@@ 366598
acle 366596
historic 366582
recognized 366561
aver@@ 366410
episode 366336
s.com 366237
Ltd 366060
Employ@@ 365906
certified 365532
consumers 365497
Republic 365476
Space 365469
Access 365404
stric@@ 365375
Shi@@ 365365
edi@@ 365288
burn 365266
visual 365129
err@@ 365120
Lar@@ 365084
attemp@@ 365008
Princ@@ 364983
AD 364971
printed 364970
asing 364926
advoc@@ 364795
Tech 364761
plays 364709
Aw@@ 364673
Start 364470
PE@@ 364445
papers 364417
ification 364356
removed 364219
vel@@ 364195
ooth 364190
demonstr@@ 364177
Its 364092
foods 364070
relationships 364020
Sydney 363946
signs 363853
defe@@ 363776
Previous 363758
99@@ 363713
tag 363580
Pot@@ 363514
leather 363383
favourite 363255
asc@@ 363032
grav@@ 362963
boys 362909
FL 362860
etting 362696
Sel@@ 362514
Lov@@ 362513
oning 362494
earned 362446
Instagram 362396
asp@@ 362394
Francisco 362322
Country 362308
lay@@ 362307
sures 362276
UR 362275
treated 362187
pleased 362122
interface 362090
attended 362067
seek 362043
division 361993
historical 361953
becomes 361876
broken 361702
idential 361685
accep@@ 361620
anywhere 361544
rey 361520
Brow@@ 361475
elim@@ 361410
failure 361288
integrated 361279
lo 361210
ava 361069
collect 360924
olog@@ 360861
contemporary 360800
Clo@@ 360687
desk 360642
gment 360514
intended 360395
sustainable 360343
female 360336
uts 360314
restaurants 360272
enhance 360154
slightly 360143
tube 360083
Re 360081
sen 360067
brown 360041
Hum@@ 360010
listen 360000
mon 359992
ores 359990
Exam@@ 359972
isher 359817
nit@@ 359807
design@@ 359777
layer 359738
duty 359459
eve 359458
rig@@ 359414
Sher@@ 359388
MP 359308
photograp@@ 359304
minal 359291
reasonable 359201
prev@@ 359117
remaining 359080
intell@@ 359038
monitoring 358979
hi 358781
ingu@@ 358738
manual 358694
authorities 358687
eck 358665
ordin@@ 358639
eligible 358606
ome@@ 358594
Mir@@ 358588
Justice 358328
tioned 358213
oted 358177
suff@@ 358104
Williams 358059
ML 358057
enger 357962
Sem@@ 357717
messages 357714
stitution 357712
talks 357611
son@@ 357500
ga 357351
salt 357307
ache 356948
stand@@ 356875
fruit 356848
Anim@@ 356825
surgery 356816
agents 356786
Aut@@ 356550
outstanding 356535
ray 356499
DS 356454
mention 356393
inding 356357
Us 356344
repl@@ 356274
auto 356217
regulations 356098
Georgia 356077
pes 355928
stated 355795
..@@ 355722
Korea 355614
Mun@@ 355585
represent 355462
66 355446
inations 355383
hole 355313
approval 355300
battle 355274
western 355239
Post@@ 355174
77@@ 355126
extension 355053
ference 355014
Select 354847
rad@@ 354817
relax@@ 354807
mass 354736
eping 354722
Ty@@ 354602
directed 354545
Studies 354513
tol@@ 354486
fat 354476
Rights 354451
promp@@ 354352
strategic 354321
Maj@@ 354133
fabric 354107
Application 354028
knows 353987
gging 353983
Phys@@ 353726
Mah@@ 353659
Ti@@ 353561
compliance 353542
ault 353451
push 353286
faster 353227
eway 353204
Cou@@ 353140
Member 353033
hundreds 352969
Ko@@ 352937
shar@@ 352863
instruc@@ 352822
gy 352813
short@@ 352810
Copyright 352790
Jack 352786
GA 352746
teach 352720
porter 352691
49@@ 352682
but@@ 352609
factory 352597
submitted 352570
electr@@ 352477
Far@@ 352291
FI@@ 352270
applic@@ 352204
Mont@@ 352171
Tour@@ 352096
Swe@@ 351736
ongoing 351722
stret@@ 351696
Strateg@@ 351627
Jun@@ 351565
Colorado 351273
apol@@ 351250
managing 351227
© 351195
banks 351113
arti@@ 351057
gers 350969
hoo@@ 350842
stro@@ 350809
€ 350694
Blog 350658
forec@@ 350601
bea@@ 350564
Spea@@ 350351
Mot@@ 350293
turing 350277
Scre@@ 350169
nar@@ 350100
parent 350083
sauce 350032
returns 349950
Those 349920
truth 349882
flower 349827
manner 349774
Wol@@ 349743
Kitchen 349688
factor 349675
Natural 349634
researchers 349592
vs 349527
WH@@ 349500
earn 349485
usage 349378
considering 349296
chemical 349278
eav@@ 349108
Rus@@ 348896
therap@@ 348849
Gra@@ 348797
OK 348766
tin@@ 348657
Nur@@ 348614
ero 348584
pra@@ 348575
Az@@ 348528
sand@@ 348447
institutions 348340
Avenue 348316
ul 348309
Scotland 348184
skill 348177
visited 348163
Off 348031
relation 347957
Tem@@ 347924
Health@@ 347873
efully 347830
Travel 347773
Bang@@ 347732
chosen 347682
there@@ 347648
hospit@@ 347613
determined 347548
Tun@@ 347540
upper 347534
vin@@ 347477
cooking 347458
element 347432
600 347430
dimen@@ 347335
idd@@ 347324
operate 347324
thread 347274
ledge 347090
Student 347052
PR 347006
aster@@ 346920
lers 346852
erry 346803
apartment 346693
ema 346604
tow@@ 346595
procedure 346593
mixed 346528
cred@@ 346377
sav@@ 346342
wealth 346334
differ@@ 346274
explo@@ 346242
param@@ 346212
3,@@ 346139
yards 346099
communications 346092
scri@@ 346047
Cand@@ 345998
sister 345967
bes 345914
Ath@@ 345679
determin@@ 345589
Force 345527
rice 345471
entreprene@@ 345399
pup@@ 345366
Pet@@ 345345
ped@@ 345260
ker@@ 345069
Second 344843
sand 344831
correspon@@ 344787
oke 344626
effectively 344548
Visit 344480
PD@@ 344434
Back@@ 344433
destination 344407
Queen 344394
AF@@ 344360
corpor@@ 344189
kind@@ 344141
scheme 344078
yellow 343977
premium 343858
quote 343803
EX@@ 343619
coal 343480
dish 343387
adult 343386
author@@ 343307
47@@ 343249
weekly 343138
Finally 342924
fellow 342846
mouth 342758
diet 342689
accurate 342578
appe@@ 342517
mak@@ 342516
direc@@ 342460
F. 342403
Very 342345
booking 342209
Pu@@ 342174
verse 342077
Kingdom 342070
quar@@ 341909
South@@ 341811
Agreement 341768
ares 341739
Att@@ 341676
Britain 341637
regularly 341298
reduced 341151
cute 341144
seas@@ 341124
Wood 341098
CT 340941
willing 340939
P.@@ 340912
led@@ 340909
igned 340800
scen@@ 340770
improving 340768
Mater@@ 340753
Look 340648
performing 340618
rence 340484
anch@@ 340389
respond 340334
timate 340322
organized 340296
Army 340273
Open@@ 340256
arrived 340155
extended 340064
Econom@@ 340037
Ban@@ 340030
Sales 339861
Test 339809
shops 339704
spirit 339686
originally 339615
Buil@@ 339578
filter 339576
designer 339555
chat 339514
matters 339403
lists 339353
medicine 339304
proj@@ 339272
Toronto 339193
recy@@ 338893
BR@@ 338865
Addi@@ 338698
ility 338647
04 338490
bright 338431
e.g. 338409
owns 338354
Liber@@ 338350
don 338258
encies 338159
spaces 338061
Tar@@ 337970
commun@@ 337937
LED 337931
CN@@ 337774
plac@@ 337771
taining 337753
browser 337529
ers’ 337467
erate 337397
distinc@@ 337310
entertainment 337237
specialist 337174
Roo@@ 337118
Estate 337063
mu@@ 337030
phase 337006
aire 336965
Fri@@ 336892
inate 336803
py 336791
dium 336663
Gro@@ 336591
aper 336560
fer 336544
ept 336533
twice 336521
emo@@ 336517
Administration 336429
pers 336349
monitor 336320
igr@@ 336314
association 336303
garage 336235
crushing 336176
Meth@@ 336161
sight 336128
speech 335928
wire 335913
Main 335877
prize 335860
organisation 335815
Type 335760
bilities 335747
III 335722
reti@@ 335651
AA 335459
nic@@ 335379
simpl@@ 335304
privacy 335290
tively 335269
Mic@@ 335076
teen 335019
civil 334962
Fed@@ 334955
protected 334819
certificate 334787
height 334782
valuable 334563
• 334536
termin@@ 334452
discovered 334381
scientific 334323
12.@@ 334202
ett 334176
Corporation 334172
answers 334134
motor 334095
IL 334091
Based 334076
tomorrow 333974
Personal 333947
icity 333914
offices 333895
Senate 333892
ko 333855
burgh 333812
vill@@ 333689
Jan@@ 333624
Che@@ 333622
emon 333507
inspiration 333506
anded 333391
driven 333356
dollars 333311
suppliers 333256
snow 333168
250 333167
enjo@@ 332960
golf 332925
Industry 332836
rian 332763
string 332543
ales 332476
Sum@@ 332431
mes 332347
landscape 332300
VA 332124
Tour 332097
concerned 332081
conversation 331925
Whit@@ 331897
utili@@ 331680
Democr@@ 331672
Name 331672
readers 331663
Radio 331577
SC 331537
motor@@ 331479
guess 331425
jew@@ 331376
Cul@@ 331362
oon 331288
guarantee 331049
pull 331035
editor 331004
Port 330951
Studio 330888
User 330858
inning 330849
lived 330779
nings 330737
Officer 330560
Hot@@ 330491
serves 330476
voter 330474
Manchester 330421
sible 330419
deck 330392
CD@@ 330234
attached 330152
accompl@@ 330104
otes 329960
cand@@ 329898
facilit@@ 329783
collected 329764
ALL 329701
dial@@ 329695
powder 329663
ht@@ 329645
sis 329626
fell 329606
sters 329520
appreci@@ 329503
drawing 329415
ity@@ 329294
aning 329252
Cloud 329200
Mountain 329174
enty 329098
Water@@ 329008
Bac@@ 328897
ached 328838
rose 328727
Need 328712
meth@@ 328695
walls 328444
xim@@ 328442
pip@@ 328401
concern 328383
umin@@ 328373
4-@@ 328142
Bol@@ 328128
ardens 328088
Night 328074
gam@@ 327957
degrees 327860
SEO 327741
mainly 327679
inn@@ 327646
Ri@@ 327606
ither 327517
less@@ 327443
trained 327416
kin@@ 327409
familiar 327368
resid@@ 327336
exam 327168
kick 327039
chart 326893
guidance 326857
Come 326838
truck 326819
@ 326801
hydr@@ 326750
stunning 326749
ounded 326667
coast 326504
vend@@ 326486
Kr@@ 326468
fear 326410
sizes 326407
ferences 326286
ble@@ 326121
telling 326045
television 326008
85 325885
cus@@ 325876
acr@@ 325865
arent 325848
fri@@ 325824
disp@@ 325566
context 325543
throw 325479
Care@@ 325425
sion@@ 325421
Commun@@ 325403
Sa@@ 325333
ET 325320
ek@@ 325248
Mis@@ 325224
ame@@ 325160
vely 325100
Wood@@ 325043
Main@@ 325010
Capital 324988
script 324925
raw 324832
zes 324755
solve 324427
engagement 324419
prove 324353
defense 324345
stands 324336
sured 324216
rated 324201
initiative 324117
Create 324082
accident 324081
nav@@ 324068
mountain 323745
Daniel 323741
Na@@ 323730
grounds 323692
1000 323656
promise 323637
respectively 323528
Sing@@ 323479
Bot@@ 323445
72 323407
atics 323404
foundation 323363
PRO@@ 323352
Land 323344
lows 323338
ints 323272
Analy@@ 323180
guy 323159
smooth 323155
Server 323154
ementary 323114
iers 323063
encour@@ 323013
sci@@ 322938
addres@@ 322900
open@@ 322843
lood 322781
Fol@@ 322725
Swed@@ 322719
Exper@@ 322692
GR@@ 322595
Rs 322468
https://@@ 322398
Plant 322356
Through 322332
Way 322320
Prot@@ 322307
dering 322201
mix@@ 322175
Jenn@@ 322016
Americans 321962
aked 321938
LA 321858
Hope 321757
ailed 321746
titude 321736
exist@@ 321662
Down@@ 321492
Rich@@ 321455
02 321398
Sar@@ 321394
estimated 321375
ordinary 321371
bay 321320
arily 321293
AV@@ 321251
gran@@ 321219
dur@@ 321170
Boy@@ 321113
Change 321080
CON@@ 321023
MD 320938
install@@ 320893
Jon@@ 320820
bags 320756
Their 320754
grap@@ 320698
loves 320658
lob@@ 320519
Iran 320468
conduc@@ 320429
bad@@ 320334
alleg@@ 320263
compare 320261
codes 320248
compar@@ 320207
remov@@ 319961
attribu@@ 319863
Lind@@ 319752
virtual 319737
Action 319651
possibly 319523
valid 319337
1999 319335
rare 319137
Books 318979
pression 318924
Top@@ 318822
bud@@ 318740
healthcare 318716
dings 318708
Land@@ 318581
62 318569
erts 318435
Aug@@ 318288
cab@@ 318238
Shar@@ 318086
orable 318069
stitute 317967
inser@@ 317703
mun@@ 317644
well@@ 317635
inks 317631
Whe@@ 317622
Ha@@ 317503
Jim 317469
erce 317303
novel 317181
marked 317176
prefer 317072
crisis 317066
glad 317051
32@@ 317016
Manag@@ 317014
grown 316990
omin@@ 316618
Joseph 316562
Enjoy 316554
newly 316540
password 316473
logo 316420
USB 316413
progres@@ 316280
Finance 316255
IV 316195
linked 316192
ause 316170
sized 316170
xed 315927
plane 315856
inar 315843
Theatre 315834
ired 315822
figures 315761
Computer 315752
tes@@ 315692
ults 315621
massive 315573
ania 315526
recording 315411
Experience 315410
accoun@@ 315392
wherein 315363
Pow@@ 315339
Sor@@ 315288
protein 315241
caught 315204
BB@@ 315198
Dav@@ 315079
shoes 315053
inspir@@ 314999
Arab@@ 314849
Tax 314763
ceremony 314733
wonder 314713
implement 314685
ple@@ 314638
transportation 314571
ner@@ 314503
ador 314469
52 314434
bird 314347
.com@@ 314291
actor 314285
Wel@@ 314271
shots 314253
61 314168
UN 314160
Aud@@ 314135
Ford 314093
requirement 314048
Lic@@ 314037
dated 313903
mos@@ 313874
onics 313842
rug 313832
aces 313813
aka 313734
expand 313710
Cour@@ 313646
uni@@ 313545
sour@@ 313514
wild 313485
dependent 313421
possibility 313419
hot@@ 313333
Forum 313242
ij@@ 313241
rome 313221
cost@@ 313142
Collection 313098
resume 313074
Fel@@ 313068
Irish 313025
chairs 313020
Plat@@ 312969
11.@@ 312934
Bran@@ 312934
Modern 312923
aims 312894
Gri@@ 312828
contents 312758
2020 312708
versions 312651
carbon 312418
FO@@ 312400
ior 312223
Men@@ 312089
Film 312074
Eastern 311990
sitting 311907
utch 311654
need@@ 311624
ystal 311624
occas@@ 311573
Standard 311569
counter@@ 311540
surve@@ 311468
wheel 311392
Trade 311380
Key 311298
tify 311261
shooting 311255
Level 311230
Dar@@ 311172
Pakistan 311157
decades 311136
63 311101
MC 311052
liz@@ 311029
accessible 311015
facts 310842
picked 310810
Dat@@ 310785
union 310742
child@@ 310697
applicable 310620
meant 310618
isi@@ 310595
Silver 310523
Dom@@ 310510
eld 310488
arding 310377
AW@@ 310374
terror@@ 310331
shirt 310220
musical 309931
ete 309896
accordance 309875
lip@@ 309746
equal 309683
aint 309661
isl@@ 309634
1% 309609
itness 309577
Mol@@ 309515
counter 309362
proposal 309237
ool@@ 309228
grinding 309216
Nav@@ 309003
.C. 308972
specified 308968
Victoria 308939
kinds 308896
Syn@@ 308886
boost 308806
crime 308798
freedom 308695
Giv@@ 308652
greatest 308635
YouTube 308593
bread 308499
citizens 308490
bigger 308399
nearby 308372
Pas@@ 308362
rand@@ 308299
Credit 308253
Bri@@ 308238
nes 308230
altern@@ 308211
mac@@ 308196
hall 308149
fishing 308050
Protection 307811
emphas@@ 307701
Resume 307696
boxes 307695
supplies 307610
drugs 307571
requests 307548
5th 307518
violence 307518
dies 307477
Any@@ 307363
agricul@@ 307283
03 307197
explained 307108
N. 306932
ont 306817
af 306788
com 306644
signal 306609
programm@@ 306532
itations 306461
ject 306193
ordered 306112
oud 306107
ati 306051
identity 305990
How@@ 305972
consultation 305915
objects 305779
doubt 305649
pow@@ 305571
Ol@@ 305562
Square 305490
funded 305445
architecture 305423
ather 305410
breaking 305288
ighted 305283
odes 305275
Cross 305177
expression 305116
loy@@ 305089
pension 304929
wich 304913
revol@@ 304902
upgrade 304871
tasks 304709
Bec@@ 304668
ceiling 304654
inery 304562
styles 304493
destro@@ 304489
beer 304435
networks 304433
she@@ 304397
sub 304395
Div@@ 304356
cot@@ 304311
attacks 304295
05 304126
iter 304060
utter 304041
criminal 303975
obtained 303970
Ryan 303891
Develop@@ 303798
bottle 303755
alists 303703
listing 303691
catal@@ 303664
sam@@ 303638
adventure 303527
ologies 303527
kil@@ 303480
passion 303422
embr@@ 303410
bits 303297
rating 303031
rear 302949
bom@@ 302874
partn@@ 302505
Model 302503
sending 302449
Fort 302357
MI 302339
electrical 302252
El 302241
chapter 302170
module 302152
manufacturers 302113
wooden 302087
Ind@@ 302052
appeal 302038
ebook 301962
deploy@@ 301959
oud@@ 301938
iser 301876
Pop@@ 301820
Stan@@ 301818
fig@@ 301778
fron@@ 301752
tab 301725
tested 301702
Jan 301586
theast 301496
perspective 301471
entures 301447
receiv@@ 301385
uling 301373
not@@ 301371
dest@@ 301255
rolling 301191
iversal 301161
mation 301021
Tu@@ 301007
integration 301006
availability 300958
bow 300734
contribute 300715
dol@@ 300668
Cost@@ 300659
legislation 300633
resident 300619
Cru@@ 300562
Village 300400
Having 300297
establish 300255
Daily 300250
atively 300246
letters 300239
fire@@ 300153
vibr@@ 300133
photography 300131
Form 300072
informed 300033
tip 299923
behavior 299788
Mach@@ 299756
ift 299739
thetic 299691
Taylor 299638
eventually 299610
Equ@@ 299521
Asian 299099
nec@@ 299042
Description 299009
visible 298994
incident 298985
entr@@ 298981
addi@@ 298911
Ben 298582
crip@@ 298542
nov@@ 298528
File 298482
API 298476
professor 298401
Following 298367
label 298317
reduction 298292
tournament 298255
Regional 298238
incredible 298176
passing 298053
Indi@@ 298014
covery 297996
ENT 297979
check@@ 297789
FA 297776
exist 297768
ulate 297553
continuing 297292
appreciate 297265
printing 297190
tal 297108
Hot 297088
portfolio 296984
Psych@@ 296945
Know@@ 296933
consequ@@ 296871
Lam@@ 296842
component 296793
searching 296774
pregn@@ 296660
generated 296626
reads 296520
pas@@ 296518
iller 296474
ez 296444
engage 296290
Franc@@ 296274
root 296196
get@@ 296172
Ball 296164
talent 296150
closer 296061
bean 296055
Houston 295978
Ly@@ 295916
oughly 295901
savings 295880
turning 295742
Lev@@ 295644
secret 295610
closure 295604
Retur@@ 295485
acing 295466
1-@@ 295457
ure@@ 295452
tail 295445
Interior 295443
Chem@@ 295302
ico 295266
50% 295247
grat@@ 295134
iling 295115
foc@@ 295085
2/@@ 295071
Available 294984
eric@@ 294887
Kong 294811
ki 294741
Working 294685
Saint 294667
Dor@@ 294666
movies 294624
bat@@ 294614
ourselves 294612
bell 294606
Je@@ 294591
lying 294581
ua 294533
phy 294525
Mining 294507
representative 294450
posting 294443
Solutions 294433
preparation 294415
participation 294320
Medic@@ 294295
impressive 294280
2:@@ 294264
Excell@@ 294219
struggl@@ 294188
Jackson 294179
generate 294139
cue 294132
pleas@@ 294115
urs 294081
Stre@@ 294014
Illinois 293998
�@@ 293926
ager 293840
sev@@ 293836
Bible 293827
instance 293798
anity 293765
bonus 293755
ographic 293691
Number 293669
Study 293663
Holy 293657
wise 293567
Frank@@ 293532
permanent 293518
etic 293517
5/@@ 293340
Arizona 293335
faculty 293127
Serv@@ 293034
Origin@@ 293024
essor 292975
Kids 292969
Catholic 292964
Hong 292948
stable 292874
commis@@ 292814
aug@@ 292698
stem@@ 292655
bug 292522
lement 292505
ods 292438
films 292294
perfectly 292289
fortunately 292191
accur@@ 292099
onds 292023
1/2 292015
Golden 291984
industries 291938
mut@@ 291938
mach@@ 291925
causes 291871
68 291868
permission 291793
51 291762
fel@@ 291753
Key@@ 291695
anks 291689
removal 291662
meat 291617
assum@@ 291592
recip@@ 291581
thri@@ 291539
expenses 291537
ogi@@ 291441
ype 291414
risks 291339
supplier 291334
UT 291303
debut 291272
ews 291220
tune 291218
ox 291103
placement 291022
sofa 290979
gifts 290967
67 290916
Word 290833
prop@@ 290787
attorney 290756
Prem@@ 290749
desire 290702
ancient 290700
empl@@ 290659
dale 290657
uration 290655
isa 290626
operated 290605
Property 290600
hotels 290529
accommodation 290494
diverse 290472
Special@@ 290381
nuclear 290375
horse 290250
78@@ 290168
DR@@ 290146
aboratory 290104
ph 290081
efs 289969
lay 289946
nights 289823
emy 289731
begins 289725
Sciences 289674
Bob 289644
index 289636
introduce 289630
tha 289511
Multi@@ 289305
uplo@@ 289303
enders 289294
feed@@ 289009
1998 288934
heating 288898
UT@@ 288892
sume 288866
express 288636
cc@@ 288624
Isl@@ 288599
Disney 288558
pret@@ 288523
accessories 288486
del 288477
mg 288468
sex@@ 288468
Jr. 288418
studi@@ 288352
Columbia 288343
filling 288336
solid@@ 288314
Auto 288219
wearing 288204
respec@@ 288140
mont 288081
alif@@ 288065
day@@ 288015
End 288002
justice 287913
depend@@ 287897
suggested 287877
ipal 287857
publication 287747
promotion 287620
inches 287608
sors 287585
Fi 287584
Mas@@ 287569
Non 287513
quest 287498
religious 287465
judge 287353
Construction 287351
cell@@ 287321
Meeting 287298
ela 287284
posite 287243
promo@@ 287241
Dan@@ 287237
wireless 287234
bac@@ 287221
classi@@ 287220
cook 287128
flexible 287089
ulated 287084
fast@@ 287066
Equipment 287038
refr@@ 286912
Jewish 286851
civ@@ 286813
discussed 286765
Size 286661
gged 286625
Exchange 286562
Made 286552
trends 286548
Shel@@ 286543
oulder 286518
Integr@@ 286479
closely 286476
ING@@ 286447
bone 286356
bal 286334
handling 286328
elev@@ 286299
venue 286290
Histor@@ 286261
mas@@ 286256
Broad@@ 286166
AI 286165
escap@@ 286161
follows 286153
· 286152
Not@@ 286136
Brian 286108
Four 286099
tac@@ 286020
tain@@ 285960
Mess@@ 285914
atur@@ 285903
knowing 285899
enterprise 285812
trend 285790
calendar 285773
tribu@@ 285710
Connec@@ 285680
mile 285669
Economic 285569
anniversary 285544
des 285390
casino 285385
bodies 285337
introduction 285312
Image 285308
viously 285257
wee@@ 285233
producing 285149
fitness 285110
equipped 284978
amaz@@ 284923
Matt 284889
dlife 284879
organisations 284792
pped 284758
circumstances 284720
Sym@@ 284703
Lyn@@ 284688
DVD 284623
controlled 284576
decor 284490
ipe 284480
*@@ 284401
ross 284392
bio@@ 284364
ilton 284312
aska 284290
Ve@@ 284259
relations 284240
typically 284233
subsid@@ 284223
lessons 284100
emb@@ 283937
Mark@@ 283918
orig@@ 283912
Turkey 283820
tank 283603
partments 283552
atoes 283513
54 283386
Christi@@ 283367
clock 283339
deb@@ 283245
containing 283163
08@@ 283150
guarante@@ 283127
speaker 283082
honor 283006
platforms 282952
pink 282866
Golf 282791
68@@ 282789
forest 282709
scrip@@ 282689
describe 282687
Men 282683
Commerce 282577
plo@@ 282554
aired 282529
environ@@ 282517
mount 282371
IV@@ 282359
correc@@ 282349
theory 282267
categories 282213
BE@@ 282131
EV@@ 282126
Update 282090
ae@@ 281938
Jew@@ 281926
introduc@@ 281918
EM 281847
Authority 281781
ques@@ 281707
refer 281663
urement 281634
ince 281631
Tam@@ 281619
legi@@ 281596
alongside 281456
tail@@ 281434
Audi@@ 281347
77 281322
Despite 281256
Forest 281233
bie 281138
cluded 281132
NAS@@ 281113
spokes@@ 281072
NEW 281066
SC@@ 281060
rolled 281053
ym 281036
EN 281025
elected 280975
edit 280971
petition 280945
din@@ 280773
Alex@@ 280649
Henry 280607
puts 280591
closing 280319
intelligence 280268
taxes 280222
framework 280215
crow@@ 280188
transaction 280087
butter 280060
Youth 280042
Vice 279925
Gran@@ 279922
lift 279916
broad 279796
insp@@ 279770
confir@@ 279767
unk 279745
luck 279703
minist@@ 279691
10% 279678
Kir@@ 279669
Cat@@ 279531
Melbourne 279510
itment 279510
bench 279502
B.@@ 279496
3:@@ 279459
hydro@@ 279387
ustri@@ 279359
Eth@@ 279328
unity 279328
Wales 279311
patio 279301
Loo@@ 279267
charity 279254
bid 279051
enth 279019
start@@ 279013
Miami 279004
ried 278980
recommendations 278942
eff@@ 278881
developers 278869
brief 278847
Republican 278795
Event 278457
ools 278317
Creek 278230
Wall@@ 278218
Field 278176
fresh@@ 278162
amic 278068
Juli@@ 278058
oming 278056
choices 278035
vintage 278025
ashi@@ 277938
Dur@@ 277749
bot 277716
referred 277677
ainer 277661
icing 277568
branch 277533
firms 277354
folder 277308
eze 277184
enthusi@@ 277172
lake 277172
Bridge 277169
Goo@@ 277066
Ontario 276987
ambi@@ 276871
shore 276862
trouble 276802
roads 276746
BS 276608
Smart 276545
emis@@ 276450
asses 276428
threat@@ 276411
mass@@ 276394
isk 276367
likes 276328
haz@@ 276238
perform@@ 276173
Meg@@ 275936
compet@@ 275936
ov 275911
hill 275890
Louis 275840
downtown 275822
58@@ 275791
everyday 275466
Ful@@ 275427
porting 275338
ji 275277
6th 275206
proved 275169
tually 275114
dynamic 275078
igence 275047
dollar 274996
engaged 274973
Int@@ 274917
08 274813
Hur@@ 274746
represents 274727
UC@@ 274701
eti@@ 274669
Ukr@@ 274617
gal@@ 274612
Color 274580
icals 274566
uro 274555
capable 274406
Assistant 274399
poli@@ 274273
tious 274259
answ@@ 274234
ife 274176
millions 274049
valu@@ 274034
ucky 273983
presents 273953
rie 273941
GE 273934
Kevin 273833
Resources 273831
indeed 273794
setup 273776
Inde@@ 273772
LY 273766
Choose 273742
contribution 273679
1,000 273673
thesis 273653
diff@@ 273637
78 273587
eah 273283
audi@@ 273281
Planning 273241
consistent 273184
Environmental 273167
Map 273161
Power@@ 273081
encoun@@ 273052
Heart 273027
certification 272937
les@@ 272925
04@@ 272863
pack@@ 272862
tops 272841
sul@@ 272755
holidays 272730
definition 272677
dir@@ 272666
relating 272641
recognition 272600
Bil@@ 272592
arrive 272592
ila 272561
deposit 272510
Rh@@ 272505
56 272482
Memorial 272464
raising 272458
pin 272406
portable 272405
iger@@ 272376
thir@@ 272354
has@@ 272342
Est@@ 272291
athle@@ 272164
di 272147
Jos@@ 272131
acid 272109
alcohol 272085
rou@@ 272071
tives 272052
ership 271929
69@@ 271923
volunteer 271908
Cel@@ 271762
lab 271741
FOR@@ 271647
vice 271644
Vari@@ 271637
draft 271593
ser 271523
3% 271519
eo 271468
5-@@ 271428
ggle 271367
symptoms 271231
drawn 271163
practic@@ 271110
represented 271084
hea@@ 271067
Could 271043
odd@@ 271005
SM@@ 270989
NA 270962
Jac@@ 270939
liber@@ 270826
expres@@ 270805
oured 270800
incorpor@@ 270692
Lau@@ 270628
mirror 270533
iors 270509
immediate 270465
Advanced 270430
igns 270391
contest 270312
Magazine 270228
ible 270151
quarters 270050
configuration 270017
tough 269905
automatic 269877
stem 269864
Lif@@ 269820
storm 269820
69 269748
Democratic 269732
keys 269727
eball 269712
Chair 269673
ept@@ 269670
claim@@ 269646
Han@@ 269598
stainless 269456
Rose 269381
pati@@ 269378
rout@@ 269353
directory 269319
roles 269297
pump 269227
clicking 269223
sear@@ 269147
Af@@ 269142
Money 269104
heads 269079
aircraft 269030
helor 269011
tery 268937
hamm@@ 268886
Samsung 268879
gie 268875
attle 268763
ferred 268757
Fair@@ 268739
ensuring 268733
IM 268680
arship 268652
atis@@ 268569
enda 268531
ellow 268520
ea 268515
ulations 268353
Members 268277
mov@@ 268179
clothes 268100
apart 268028
yan 267936
interactive 267935
museum 267911
Prin@@ 267910
num@@ 267886
Cot@@ 267819
capture 267674
matches 267568
endant 267555
critic@@ 267534
Merc@@ 267519
-1 267432
pdf 267376
spac@@ 267345
displayed 267317
fifth 267307
itary 267275
guil@@ 267251
Wedding 267167
oh 267143
packages 267059
wer 267030
phot@@ 266867
Jack@@ 266810
ird 266802
descri@@ 266607
expansion 266592
reducing 266504
switch@@ 266487
asset 266422
difficul@@ 266416
oup 266399
EST 266345
asty 266312
patterns 266310
authors 266306
â@@ 266296
believes 266285
stein 266255
confirm 266249
typical 266245
relief 266219
spoke 266158
Sarah 266097
concert 266036
los@@ 266020
ffs 265928
Delhi 265920
workshops 265829
umes 265780
.co.@@ 265770
cooperation 265704
treme 265621
contained 265608
necess@@ 265603
reserved 265590
rowing 265574
Pennsylvania 265543
headed 265536
Tim 265520
jack@@ 265498
Unit 265477
mo 265472
ashed 265399
taught 265263
dram@@ 265185
decre@@ 265130
announcement 265096
09 265073
satis@@ 264956
SD@@ 264843
surprise 264804
principles 264783
mi 264762
entrance 264746
ique 264739
crew 264728
rel 264671
percentage 264646
Want 264640
Easy 264583
Industrial 264442
Fab@@ 264440
urg@@ 264403
erved 264330
uding 264313
foo@@ 264224
widely 264175
rural 264136
Low 264123
technique 264096
URL 264087
Ku@@ 264005
Diego 263972
conflict 263936
ported 263865
programming 263865
celebration 263855
evaluation 263801
veget@@ 263755
worry 263748
sink 263593
telephone 263591
minor 263571
seats 263570
hip 263468
tack@@ 263466
reserve 263421
grand 263405
gear 263386
tells 263383
tend 263380
1997 263333
prob@@ 263284
Vegas 263248
may@@ 263175
azz 263173
NC 263018
replac@@ 262974
dental 262960
Hop@@ 262953
&apos;s 262923
ii 262828
significantly 262769
Max 262704
practi@@ 262696
upgrad@@ 262678
stopped 262648
pricing 262590
Creative 262559
i.e. 262467
challenging 262457
volunteers 262453
las 262440
sac@@ 262418
53 262400
carefully 262358
Performance 262336
Fore@@ 262231
shelf 262202
threat 262199
arrested 262192
announ@@ 261978
after@@ 261964
quanti@@ 261963
guidelines 261935
entering 261928
Elizabeth 261927
graphic 261918
Winter 261882
subst@@ 261847
southern 261783
anticip@@ 261684
loans 261680
susp@@ 261634
Fir@@ 261624
Poli@@ 261593
bath@@ 261584
120 261581
Chi@@ 261538
Alex 261509
iction 261252
licensed 261139
tracking 261008
Diam@@ 260993
7/@@ 260951
ignment 260930
Farm 260894
ida 260891
bars 260885
array 260829
winners 260786
chr@@ 260781
iff 260742
・ 260716
Content 260714
HD@@ 260656
Stephen 260558
Article 260537
completion 260533
Eng@@ 260516
Well@@ 260513
Paper 260497
exact 260332
Trav@@ 260301
decade 260261
seed 260255
forth 260134
s. 260122
va 260096
Beautiful 260088
expressed 260067
achieved 260066
joy 260041
umps 260030
aer@@ 259922
column 259908
9/@@ 259801
Initi@@ 259800
azing 259793
tz 259786
stu@@ 259739
Intell@@ 259726
ect@@ 259645
tracks 259587
suite 259568
Commercial 259523
part@@ 259490
Vill@@ 259436
requested 259402
dom@@ 259394
argu@@ 259368
flights 259331
$@@ 259311
poin@@ 259282
Source 259270
20th 259268
applying 259174
entitled 259153
tak@@ 259098
HE@@ 259081
Cu@@ 259050
Mount 259047
fab@@ 259008
resistance 258979
zero 258923
7th 258910
managers 258905
alize 258898
aun@@ 258895
awa 258815
trail 258751
gh 258732
structures 258712
turns 258660
sum 258652
Follow 258525
fli@@ 258490
saved 258454
Austin 258409
accommod@@ 258348
discus@@ 258254
Ms 258246
Below 258119
Pers@@ 258022
templates 257985
Civil 257937
gorgeous 257900
pect 257866
Chapter 257760
regions 257678
entic@@ 257677
ultimate 257670
orts 257543
shift 257473
inated 257371
Sam 257353
atmosphere 257279
AK@@ 257195
swimming 257192
enjoying 257178
outh 257165
wins 257048
inder 257003
Tok@@ 256995
venues 256972
Dam@@ 256968
streets 256960
fighting 256916
Nigeria 256881
jaw 256850
crimin@@ 256783
arrival 256780
odge 256719
shine 256663
debate 256655
realize 256608
Sign@@ 256586
assistant 256548
convenient 256507
apple 256421
journal 256409
neys 256399
inating 256167
leg 256132
vacation 256105
ellers 256088
Adam 255961
Lux@@ 255957
flex@@ 255925
conclus@@ 255912
Works 255898
farm@@ 255864
oa 255859
develop@@ 255858
Rog@@ 255783
scope 255777
functional 255712
Pil@@ 255662
losing 255629
scap@@ 255609
06 255594
alumin@@ 255571
rack 255542
iny 255491
seemed 255485
netic 255472
Championship 255459
quiet 255371
kid@@ 255299
4,@@ 255256
diagram 255226
gall@@ 255199
Class@@ 255176
bloc@@ 255147
lifestyle 255134
engers 255097
substanti@@ 255000
Tra@@ 254988
Frank 254977
Terms 254833
valid@@ 254738
ext 254736
forming 254675
1996 254629
powered 254590
assem@@ 254523
graph@@ 254405
entional 254329
wave 254317
stations 254262
N.@@ 254227
happening 254213
none 254182
unable 254164
blocks 254121
stimul@@ 254113
TX 254102
Shop@@ 254076
Therap@@ 254072
utr@@ 254061
Letter 254045
Brook@@ 253956
light@@ 253920
equivalent 253919
Course 253708
AU@@ 253680
abuse 253664
YOU 253616
dropped 253518
compatible 253472
stitu@@ 253408
giant 253387
delivering 253366
emotional 253308
neighborhood 253303
istan 253279
surpr@@ 253256
Davis 253197
eup 253156
hoping 253067
UI 253064
Las 253044
graphics 253040
2% 253015
aspect 252932
ATE 252840
lobe 252830
occur 252824
ativity 252816
lesson 252799
concerning 252764
izza 252759
tice 252758
extrac@@ 252744
resist@@ 252709
tering 252708
07 252690
Dan 252683
seas 252639
aza 252621
Kim 252590
dependence 252434
asy 252404
replaced 252386
tons 252292
greg@@ 252263
~@@ 252242
MR@@ 252205
invent@@ 252188
anges 252136
Ah@@ 252123
Cancer 252100
believed 252055
eph@@ 252018
currency 252013
officially 251963
ensity 251953
ogy 251949
hidden 251903
Bru@@ 251873
egg 251793
ruption 251756
yours 251697
rif@@ 251688
á@@ 251626
vital 251587
rows 251546
stra 251534
mixture 251522
here@@ 251489
cryp@@ 251478
electricity 251433
oblig@@ 251431
oft 251378
afr@@ 251322
assembly 251299
tier 251279
Engine@@ 251255
compensation 251142
dou@@ 251082
sponsored 250967
relative 250937
adow 250932
10th 250907
slow@@ 250873
injuries 250861
Cover 250791
SW@@ 250726
matt@@ 250694
iOS 250680
FOR 250665
aper@@ 250661
bel 250657
uch 250647
illegal 250629
channels 250582
Wik@@ 250556
BL@@ 250544
listening 250473
Sign 250472
mat 250462
Hard@@ 250420
elle 250389
gun@@ 250334
hopes 250304
now@@ 250258
roller 250210
71 250174
shoot 250170
SQL 250162
developer 250154
Express 250098
Chairman 250054
panels 250037
pursu@@ 250021
nie 250017
Schol@@ 250003
six@@ 249971
aya 249950
ester@@ 249938
HR 249918
Ki@@ 249871
ATION 249815
itz 249791
priority 249783
Toy@@ 249777
stru@@ 249770
WordPress 249727
Gul@@ 249724
clear@@ 249656
ailers 249643
rising 249590
overs 249548
eau 249517
Job 249478
gal 249428
kill 249419
exclus@@ 249401
Miller 249371
perf@@ 249330
iPad 249295
omet@@ 249284
Child 249277
tox@@ 249235
istry 249172
extend 249138
Know 249123
enever 249055
brid@@ 249050
hang 249012
dition 249006
cuts 248939
Hea@@ 248938
aim@@ 248928
pets 248915
alled 248897
reflect 248860
heading 248855
contro@@ 248845
faced 248845
Large 248719
mortgage 248679
count@@ 248645
chand@@ 248636
thes@@ 248625
buff@@ 248607
Premier 248595
bet 248578
Kal@@ 248531
personally 248331
avo@@ 248266
Gh@@ 248222
secondary 248076
male 248056
accompan@@ 248042
sections 247970
Analysis 247889
regard 247851
see@@ 247685
ern 247635
PP@@ 247583
fits 247582
consent 247556
aqu@@ 247545
stored 247517
servers 247485
abetes 247461
prin@@ 247437
adop@@ 247422
Spirit 247332
consider@@ 247310
dealing 247262
adj@@ 247247
anned 247119
transition 247047
lock@@ 247041
soul 247003
6:@@ 246904
Baby 246875
crowd 246874
і@@ 246847
GD@@ 246805
Aff@@ 246756
provision 246703
Oregon 246702
nic 246625
rol 246596
producer 246529
speakers 246514
bir@@ 246497
sees 246475
Minnesota 246433
Complete 246431
76 246404
respective 246358
modified 246269
ority 246234
razy 246204
funny 246131
invest 246055
oz 246053
wan 246050
odd 246044
anting 245935
sin@@ 245922
phen@@ 245874
7:@@ 245840
onia 245778
exposure 245772
rank 245771
sud@@ 245765
amen@@ 245730
ologist 245701
Identi@@ 245696
apers 245646
cap 245642
checking 245633
500@@ 245612
ather@@ 245588
preparing 245521
ial@@ 245520
Indones@@ 245397
eme 245379
aimed 245348
Pass@@ 245343
Ok@@ 245336
Jeff@@ 245150
veg@@ 245093
Emerg@@ 245090
ution@@ 245079
wet 244984
consumption 244976
Prince 244890
Hay@@ 244854
ja 244817
Edition 244743
Rap@@ 244724
titled 244675
arently 244631
formal 244572
Repair 244534
Jordan 244517
recipes 244323
9:@@ 244304
sers 244200
Brazil 244196
Tai@@ 244176
Mass@@ 244163
export 244159
occer 244139
worst 244135
mony 244124
Give 244123
YO@@ 244083
Dro@@ 244070
Chel@@ 244019
subsequ@@ 243968
chose 243904
noticed 243881
Hello 243811
frequently 243785
Seattle 243701
supervis@@ 243695
Meanwhile 243652
xes 243606
tiveness 243595
documentation 243593
absor@@ 243565
vulner@@ 243434
Vic@@ 243384
Ak@@ 243365
gotten 243287
Anti@@ 243274
spot@@ 243274
sensitive 243230
Classic 243209
Fox 243206
ake@@ 243203
aur@@ 243187
singer 243117
lucky 243107
ivers 243101
Camp 243066
prime 243041
FR@@ 243024
consideration 242983
caf@@ 242910
Cape 242871
Affairs 242862
packed 242739
Tree 242720
Double 242710
1.5 242679
Bow@@ 242631
depar@@ 242614
je@@ 242600
Published 242590
Wilson 242564
correctly 242519
relig@@ 242491
uting 242228
04/@@ 242223
Self 242185
QU@@ 242179
elections 242178
relatively 242166
59 242161
Liv@@ 242128
ami 242121
granted 242074
Intern@@ 242030
20% 241994
inity 241991
Math@@ 241986
noise 241897
mounted 241862
Case 241857
refu@@ 241852
tified 241821
resulting 241798
feels 241508
administr@@ 241451
cann@@ 241379
purch@@ 241300
desired 241298
PN 241296
orange 241248
warning 241235
rain@@ 241201
where@@ 241181
sa@@ 241174
birds 241171
ura 241132
tension 241108
estone 241102
personnel 241077
eng 241071
rot@@ 241055
Restaur@@ 241052
criteria 241009
permalink 240998
edings 240946
resort 240913
CF@@ 240896
elry 240854
ainers 240831
northern 240824
Address 240811
width 240795
belt 240739
odcast 240736
Squ@@ 240667
restor@@ 240618
promoting 240598
jump 240586
meals 240580
retirement 240577
Philadelphia 240565
convert 240558
split 240557
Greek 240550
democr@@ 240503
copper 240491
Supreme 240433
know@@ 240420
olesale 240409
neck 240405
carrying 240403
dating 240380
wash 240298
tiny 240244
Death 240223
sty@@ 240187
Thom@@ 240139
rab 240128
involving 240078
58 240075
osophy 240070
connections 240033
dangerous 240031
Mari@@ 240023
gene 239989
beg@@ 239988
O’@@ 239973
temper@@ 239941
Rand@@ 239935
moments 239803
Rod@@ 239802
TP 239738
stery 239732
liability 239721
Pages 239668
Aqu@@ 239635
mas 239613
Bab@@ 239596
maps 239539
Challenge 239532
uster 239522
grey 239479
awn 239445
adequ@@ 239429
Cli@@ 239346
buyers 239305
Email 239221
authorized 239178
fail 239168
rail 239067
73 238990
marriage 238887
trou@@ 238877
magic 238864
tiles 238745
spiritual 238739
Custom 238735
representatives 238717
Atlanta 238701
ebr@@ 238657
participating 238638
ampton 238608
follow@@ 238573
Has 238557
Furniture 238451
Link 238407
riers 238391
lamp 238358
ynam@@ 238331
accounting 238311
promot@@ 238270
harm@@ 238248
reputation 238201
Foreign 238199
Early 238175
undred 238099
5:@@ 238086
Sof@@ 238076
Oak@@ 237894
teeth 237820
eness 237775
ipp@@ 237752
bow@@ 237715
Haw@@ 237632
ament 237629
.m@@ 237616
estim@@ 237558
ailway 237492
eras 237463
icit 237370
bor 237355
Fair 237331
reader 237331
57 237320
Date 237186
fing@@ 237183
fundam@@ 237155
Harry 237136
attending 237113
ranked 237106
Stor@@ 237084
donation 237056
keeps 237048
emerg@@ 237046
BBC 236983
doctors 236929
Being 236898
Orange 236819
rich@@ 236815
pharmac@@ 236756
whilst 236749
supposed 236726
hai 236654
Technical 236628
soil 236617
Still 236612
icy@@ 236597
IO@@ 236578
comparison 236567
falls 236522
choosing 236520
recre@@ 236516
Making 236502
constitu@@ 236489
eable 236483
CS 236456
Transp@@ 236434
pris@@ 236421
ribu@@ 236387
Future 236361
onym@@ 236347
Hawai@@ 236333
Was 236327
controls 236327
carpet 236322
illi@@ 236308
sons 236225
usive 236223
Atlantic 236169
flying 236152
sit@@ 236128
tradition 236006
guard 235990
afford 235988
tum@@ 235936
Nations 235911
icked 235877
entirely 235851
Cambridge 235821
Kat@@ 235782
occur@@ 235777
Easter 235766
1995 235732
grew 235727
NO 235704
maxim@@ 235673
tian 235611
s/@@ 235607
cook@@ 235606
iest 235519
Mill@@ 235464
signing 235441
citiz@@ 235440
injured 235382
Eag@@ 235316
lyn 235236
pur 235218
Sab@@ 235206
Andre@@ 235194
rom@@ 235156
commission 235141
Blu@@ 235057
renov@@ 235035
pace 234995
fasc@@ 234964
....@@ 234876
Father 234833
Cros@@ 234820
oy 234807
baking 234798
kg 234795
increases 234700
aside 234683
USD 234652
Vit@@ 234586
Question 234546
alle@@ 234534
emails 234392
Agricul@@ 234377
otive 234359
Laur@@ 234338
igration 234331
esh@@ 234267
I. 234240
castle 234228
transactions 234216
atellite 234209
container 234187
fam@@ 234076
Patrick 233989
staying 233989
pleasure 233961
lawyer 233957
accel@@ 233951
Reading 233918
ratio 233903
employed 233896
Condi@@ 233844
Dallas 233800
Som@@ 233717
natur@@ 233618
photographs 233607
ient 233600
oner 233574
connecting 233507
zing 233500
21@@ 233498
batt@@ 233405
normally 233390
GO 233336
0s 233285
employer 233279
samples 233278
Maybe 233277
certif@@ 233191
pure 233180
Linux 233157
Comb@@ 233130
fers 233107
invite 233094
Succ@@ 233080
Harv@@ 233079
ident 233072
favor@@ 233027
clothing 233007
exerc@@ 232957
proven 232934
expectations 232916
worthy 232859
boot 232821
grass 232803
Tru@@ 232754
SD 232651
checked 232618
tall 232615
Fal@@ 232572
assigned 232537
layout 232512
versi@@ 232411
De 232365
statements 232356
Michel@@ 232330
painted 232313
iance 232305
capabilities 232279
#@@ 232215
SL@@ 232198
var@@ 232198
sanc@@ 232172
contracts 232096
BM@@ 232024
Oli@@ 232015
Week@@ 231976
Iron 231898
intr@@ 231832
ario 231757
98 231721
Though 231640
attractive 231593
Van 231569
treatments 231548
entations 231491
fic 231471
loving 231466
tible 231445
consum@@ 231432
Practice 231356
liked 231312
Dave 231269
Share 231234
Apr 231092
Run 231021
Ker@@ 230944
mot@@ 230900
coaching 230864
tings 230738
deleg@@ 230736
Nat@@ 230719
Ave 230693
findings 230665
uma 230634
eggs 230614
titles 230590
Sle@@ 230542
terri@@ 230537
Account 230445
phr@@ 230443
finishing 230373
strike 230373
ashes 230322
temporary 230309
Consum@@ 230236
Ell@@ 230230
enna 230223
Stri@@ 230170
abroad 230140
Age 230021
politics 229985
nut 229886
meets 229870
lun@@ 229855
acker 229824
Rock@@ 229760
96 229758
brush 229755
repres@@ 229725
Veter@@ 229716
nee 229710
irts 229681
iler 229512
old@@ 229509
owl 229289
roy@@ 229173
Imp@@ 229159
acher 229104
icious 229085
anne 229033
Ther@@ 228919
74 228822
Celebr@@ 228804
reply 228789
lik@@ 228770
shut@@ 228760
Schools 228756
gry 228747
cock@@ 228602
set@@ 228557
clude 228546
improvements 228437
cho@@ 228422
clubs 228351
Eric 228314
situations 228260
agu@@ 228180
Won@@ 228148
ounge 228141
healing 228131
writers 228039
tioner 227987
izer 227924
Indiana 227920
Tony 227889
uted 227843
cut@@ 227810
differences 227796
extent 227685
franch@@ 227634
hat 227608
91 227553
bear 227547
hanging 227538
gender 227509
ele 227498
recognize 227484
Educ@@ 227481
cow 227448
mom@@ 227436
public@@ 227435
scientists 227396
false 227385
bition 227384
Fire@@ 227354
C.@@ 227348
oen@@ 227340
tone 227260
wall@@ 227234
riculum 227220
Malaysia 227214
alling 227196
communicate 227179
Euro@@ 227173
ectual 227147
Ocean 227112
Wa@@ 226985
ific@@ 226905
chron@@ 226896
conversion 226882
tificial 226850
ectors 226828
performances 226816
Figure 226799
ü@@ 226764
kl@@ 226741
semi 226682
Oklahoma 226625
Pul@@ 226599
implemented 226555
dishes 226549
coin 226533
ICE 226508
rub@@ 226470
Body 226391
cep@@ 226363
broke 226319
Used 226318
300@@ 226225
And@@ 226194
Enter 226176
Latin 226109
elegant 226081
warranty 226079
ason 226035
inten@@ 225974
6/@@ 225958
mess@@ 225956
studying 225874
step@@ 225860
situated 225778
Matthew 225770
Stock 225745
mitting 225719
signature 225703
drinking 225667
categor@@ 225650
regulation 225644
Bat@@ 225604
Fall 225604
Vietnam 225573
overview 225562
fore 225552
plug 225501
Kansas 225482
Iraq 225445
Glass 225433
Jeff 225415
Assembly 225261
abil@@ 225242
19th 225181
Ann 225180
arely 225110
Lady 225043
cookies 225024
estimate 225015
aving 224999
ice@@ 224973
occasion 224944
circuit 224927
Deliver@@ 224904
Template 224835
spots 224745
enables 224735
thin 224733
visits 224697
Story 224573
Football 224562
2.0 224395
PH@@ 224385
crash 224385
institution 224385
mail@@ 224349
define 224330
Ka@@ 224321
Incre@@ 224266
itt 224249
::@@ 224239
ux 224237
returning 224233
stages 224227
Joh@@ 224189
ighting 224182
liquid 224174
Mar 224057
mom 224030
Thr@@ 223992
orities 223966
tv 223963
Nick 223870
lit@@ 223826
insight 223824
Exp@@ 223796
found@@ 223678
Vancouver 223674
addresses 223661
sufficient 223647
suggestions 223622
poll@@ 223600
ves@@ 223583
Net 223553
assionate 223533
Feb 223531
Electric 223521
79 223519
Micro@@ 223469
tight 223398
languages 223379
tape 223318
8th 223299
Rot@@ 223154
imagine 223092
empty 223057
fundra@@ 223037
Portu@@ 223020
mari@@ 223014
org/@@ 222948
seriously 222945
marine 222943
Jason 222906
Oxford 222890
blend 222878
gary 222820
regulatory 222777
clus@@ 222750
eous 222745
itan 222737
math 222579
enforcement 222559
ushers 222549
contributions 222520
week@@ 222476
With@@ 222459
severe 222442
inform 222426
si 222403
Nature 222322
Treat@@ 222322
bou@@ 222258
1994 222236
Categ@@ 222221
purchasing 222218
HERE 222191
Investig@@ 222103
quiry 222036
combine 222032
moves 222021
itate 222020
even@@ 221903
colours 221841
J.@@ 221823
Communications 221738
sorry 221720
drinks 221709
acquired 221698
Py@@ 221657
pa 221603
ction 221522
riding 221482
bin 221452
chec@@ 221427
chairman 221401
Phone 221379
Way@@ 221334
stake@@ 221325
indoor 221312
gar 221299
wind@@ 221256
Holiday 221224
erly 221214
88 221126
Try 221064
statistics 220947
fat@@ 220912
adds 220872
worse 220863
92 220833
onda 220817
centers 220802
Wisconsin 220799
tonight 220765
Style 220746
aders 220733
itive 220675
Gil@@ 220673
coat 220642
dam 220616
mate 220606
soldi@@ 220596
permit 220589
ERS 220588
explan@@ 220529
planet 220473
backed 220431
ubl@@ 220431
oci@@ 220420
Bou@@ 220417
locked 220404
Differ@@ 220403
Final 220392
wis@@ 220313
sust@@ 220310
IR 220301
mann 220280
Alliance 220223
juice 220184
hits 220182
Front 220117
preferred 220114
printable 220102
ministry 220067
somewhere 220043
induc@@ 219983
ongs 219943
genu@@ 219940
roll@@ 219920
racing 219906
newspaper 219881
sional 219881
foun@@ 219872
champion 219858
provisions 219845
indicate 219717
Kelly 219712
banking 219638
thous@@ 219633
Ed 219609
utility 219605
Korean 219600
academ@@ 219599
ressed 219554
ort 219534
credited 219496
CT@@ 219462
Nev@@ 219437
comfor@@ 219419
tut@@ 219340
coupon 219285
highlight 219210
focusing 219191
Massachusetts 219188
prosec@@ 219127
Yor@@ 219120
Saudi 219095
igent 219088
Syria 219064
acquisition 219035
equity 219013
Five 218977
Belgi@@ 218925
Total 218897
meters 218882
Tou@@ 218828
residence 218760
Design@@ 218699
ustin 218698
umn 218654
continu@@ 218653
97 218636
rus@@ 218587
iti 218556
basketball 218518
2.5 218454
bass@@ 218454
examination 218448
abled 218370
jum@@ 218284
Afgh@@ 218163
vent 218136
borough 218132
jur@@ 218126
primarily 217975
regim@@ 217910
700 217835
exit 217816
unt@@ 217788
conut 217780
spectac@@ 217743
Lane 217718
cham@@ 217713
parks 217681
Marine 217659
mort@@ 217650
Olympic 217581
vast 217580
4% 217543
hair@@ 217451
aze 217334
Grant 217323
Stadium 217322
tles 217318
laptop 217196
Head@@ 217188
household 217173
packaging 217065
Angel@@ 217058
initiatives 216960
screening 216876
desktop 216854
Attorney 216807
Sul@@ 216779
corn 216715
Maryland 216696
flag 216690
itn@@ 216690
Dog 216638
GM@@ 216614
treas@@ 216570
dipl@@ 216549
venture 216493
chances 216464
Chr@@ 216461
frequency 216461
subjects 216408
confident 216345
obs 216323
Brid@@ 216252
styl@@ 216121
Dubai 216109
10:@@ 216108
urities 216096
osis 216076
gained 216019
aters 216010
inson 215979
suffering 215979
Channel 215934
propos@@ 215933
beds 215899
scores 215871
WA 215869
iev@@ 215864
6% 215810
Simon 215792
CH 215781
AY 215741
Pay 215736
agen 215705
Miss 215702
ulty 215685
quotes 215667
Kn@@ 215649
hib@@ 215617
licen@@ 215613
moon 215543
potentially 215541
constant 215508
Wea@@ 215463
tom 215402
Hollywood 215360
dil@@ 215344
It@@ 215224
Mayor 215168
Fer@@ 215159
Lewis 215138
Brad@@ 215107
mar 215075
fing 214997
import 214951
house@@ 214930
memories 214916
pick@@ 214848
salary 214761
tours 214753
alia 214748
4:@@ 214714
photograph@@ 214707
endor@@ 214640
newest 214639
Enterprise 214618
inspection 214613
uals 214609
1990 214556
Cos@@ 214530
ograp@@ 214518
constantly 214489
lips 214473
representing 214452
gaming 214347
Stu@@ 214322
haven’t 214312
protoc@@ 214128
younger 214122
lowest 214106
Clinton 214102
ailer 214085
diseases 214055
Dim@@ 214036
Heritage 213993
cotton 213992
satisfaction 213827
Poly@@ 213812
colleagues 213770
Mini 213722
causing 213614
surg@@ 213564
Bedroom 213441
Fam@@ 213346
Tit@@ 213333
Egypt 213328
Single 213326
Revi@@ 213307
ener 213232
aph 213219
larg@@ 213212
Ran@@ 213199
premis@@ 213197
Denver 213192
Anton@@ 213087
Allen 212990
accused 212987
glasses 212881
Coloring 212871
Clev@@ 212853
opposition 212843
province 212820
gap 212778
cludes 212769
furn@@ 212733
twin 212719
bi 212694
Hz 212675
navig@@ 212666
oppon@@ 212596
profits 212563
golden 212547
delay 212515
Scottish 212455
Ever@@ 212339
Round 212324
Scienti@@ 212289
maintaining 212172
Plan@@ 212154
convenience 212153
responsi@@ 212091
Hills 212037
functionality 211998
reaching 211992
classroom 211981
MM@@ 211969
Tab@@ 211948
ockey 211943
FF 211938
creates 211935
lor@@ 211924
pipe 211889
ranging 211852
complim@@ 211815
pilot 211778
Resort 211775
dea@@ 211716
4/@@ 211715
Certified 211660
ounding 211636
honest 211566
directors 211550
peac@@ 211537
86 211506
backs 211451
Remember 211424
hosts 211320
esa 211251
Benef@@ 211218
9th 211214
John@@ 211186
Sett@@ 211171
summary 211148
Coffee 211146
mits 211120
21st 211020
Quar@@ 210955
King@@ 210925
Ky@@ 210913
ighter 210898
implem@@ 210853
Purch@@ 210842
ho 210832
investments 210751
stly 210730
advantages 210676
Fu@@ 210625
wash@@ 210579
vin 210578
libr@@ 210537
dust 210533
Hill@@ 210529
explains 210493
ilian 210480
subscription 210398
continuous 210354
ires 210328
Casino 210308
simul@@ 210224
zy 210224
olution 210211
fence 210156
Buff@@ 210155
Rd 210120
WO@@ 210107
Friends 210033
EC 210027
Custom@@ 209976
94 209970
dual 209959
great@@ 209959
Israeli 209951
timis@@ 209946
Anthony 209905
Storage 209865
adopted 209796
athy 209759
objective 209620
washing 209620
Cub@@ 209603
entials 209542
Iowa 209536
Dal@@ 209503
networking 209476
isol@@ 209442
lier 209359
shaped 209352
farmers 209337
operator 209297
exceptional 209287
ifer 209222
Investment 209215
Pos@@ 209207
consists 209163
Kent@@ 209112
lining 209066
Islamic 209023
lex@@ 208938
Ba@@ 208878
hr@@ 208841
Chil@@ 208781
Mr@@ 208758
Fa@@ 208737
amounts 208662
entially 208629
Discussion 208583
pitch 208537
Days 208491
actively 208490
smile 208409
Prob@@ 208384
good@@ 208330
outcome 208249
guitar 208212
Season 208168
collections 208167
labor 208156
Mand@@ 208150
distributed 208139
eap 208120
reception 208082
revis@@ 207836
Commission@@ 207830
hou@@ 207706
weapons 207630
Language 207625
Gor@@ 207582
experi@@ 207542
Corporate 207455
admission 207400
indicated 207398
ocean 207392
prison 207389
Good@@ 207360
Fast 207291
scul@@ 207248
6-@@ 207231
Sched@@ 207190
errors 207178
newsletter 207165
vary 207157
counting 207133
icates 207109
V. 207106
Spo@@ 207060
tap 206969
shop@@ 206942
rej@@ 206899
sensor 206645
vey@@ 206626
irt 206583
opens 206539
Deg@@ 206538
screen@@ 206497
Certificate 206470
seeds 206461
histor@@ 206449
receip@@ 206365
reviewed 206350
gorith@@ 206234
tries 206233
101 206103
Junior 206095
plugin 206070
uph@@ 206051
obvious 205988
Architec@@ 205984
Stay 205984
hyper@@ 205960
Id@@ 205944
iscal 205943
esome 205942
[@@ 205935
Thailand 205923
Innovation 205912
superior 205911
ively 205874
plat@@ 205856
outcomes 205767
bank@@ 205755
thick 205739
forever 205738
GB@@ 205722
inking 205712
emerging 205710
WW@@ 205694
administrative 205652
Region 205634
gol@@ 205631
Band 205583
heritage 205557
entic 205491
upload 205490
horiz@@ 205468
sburg 205387
Direct 205384
Chap@@ 205378
secured 205369
vegetables 205369
login 205349
Environment 205337
Perfect 205309
seasons 205300
ww@@ 205295
ello 205231
Break@@ 205230
athan 205221
Gas 205196
Events 205155
acknowled@@ 205154
Tan@@ 205148
10,000 205092
compete 205035
exploring 205002
prints 204995
tourism 204958
Metal 204949
smoo@@ 204945
tim 204936
rements 204924
seller 204846
migration 204789
Corn@@ 204659
plain 204621
otic 204615
iel@@ 204604
diversity 204562
toilet 204554
fairly 204531
damaged 204522
maintained 204506
occurred 204490
power@@ 204480
sider 204452
washer 204415
fiction 204381
esis 204379
arly 204345
Morgan 204340
Oct. 204322
Pear@@ 204322
93 204307
rubber 204265
Bookmark 204236
delete 204224
icans 204214
astr@@ 204213
junction 204188
shif@@ 204173
Rad@@ 204143
pocket 204120
trips 204113
legs 204112
hic@@ 204095
regardless 204093
entries 204084
erland 204028
tism 203972
toral 203972
ultimately 203932
trum 203883
increasingly 203869
roof@@ 203816
Bron@@ 203777
Kit 203775
Fle@@ 203733
limits 203671
quarter@@ 203629
Legal 203599
own@@ 203596
mart 203407
Dance 203316
falling 203231
Details 203229
bus@@ 203177
Ray 203127
installing 203102
tot@@ 202994
advertis@@ 202956
13.@@ 202943
Short 202926
ownership 202919
stern 202890
rings 202882
suffered 202862
campaigns 202830
84 202751
D.@@ 202739
effici@@ 202683
effec@@ 202641
Pati@@ 202631
cabinets 202589
VC 202574
insights 202510
opher 202488
rix 202470
bacter@@ 202450
alli@@ 202382
share@@ 202372
Answ@@ 202364
Hav@@ 202337
ysi@@ 202250
lasting 202206
Stand@@ 202180
entive 202172
targeted 202172
muscle 202151
AB 202126
Clim@@ 202104
Islands 202082
Nik@@ 202082
trailer 202016
Convention 201953
14.@@ 201952
backup 201919
knoc@@ 201906
concepts 201842
Panel 201825
slot 201795
sched@@ 201787
Avi@@ 201779
Treas@@ 201767
15th 201751
glob@@ 201702
Pre 201692
ask@@ 201679
xiety 201630
ocket 201602
enz@@ 201590
copies 201564
Bed@@ 201555
Gift 201552
flour 201489
designers 201485
enture 201479
Engine 201397
astal 201382
Sir 201379
Lad@@ 201337
comput@@ 201287
Sony 201261
endment 201251
/2019 201217
Mission 201201
excell@@ 201141
Records 201129
snow@@ 201121
8:@@ 201048
ali 201047
Bureau 200993
nail 200974
NFL 200957
frequ@@ 200884
minent 200873
ISO 200830
Berlin 200822
Nice 200813
Palestin@@ 200796
demonstrate 200790
supplied 200743
merg@@ 200701
Philippines 200686
rants 200669
Springs 200660
50,000 200578
Mother 200546
12th 200529
Process 200529
eal@@ 200513
bands 200502
Among 200461
DNA 200437
folks 200324
vas 200261
1993 200226
Tig@@ 200166
Third 200141
Cost 200133
lease 200085
Show@@ 200046
Duration 200000
principal 199944
routine 199929
Common 199901
satisfied 199878
Miss@@ 199868
displays 199868
conserv@@ 199820
flooring 199783
atre 199774
ded@@ 199702
scal@@ 199699
turer 199695
Altern@@ 199635
dered 199631
ware@@ 199630
pitch@@ 199623
Liverpool 199599
pointed 199476
emed 199431
scenes 199390
Governor 199302
Anderson 199276
R.@@ 199264
fabulous 199248
patch 199238
PhD 199235
Peter@@ 199159
peak 199146
resul@@ 199144
universities 199140
butt@@ 199102
bra 199093
yst@@ 199080
haven't 199059
Gold@@ 198963
Organization 198935
Moun@@ 198933
suggests 198911
Appro@@ 198855
transmission 198849
gger 198800
Rout@@ 198798
brid 198786
kee 198733
themes 198709
vacc@@ 198700
tub 198696
obl@@ 198654
spective 198635
uters 198597
Gab@@ 198575
verage 198563
victims 198519
Netherlands 198479
directions 198436
operational 198428
Gradu@@ 198347
fiel@@ 198319
Sport 198306
balls 198228
Grand@@ 198174
encouraged 198157
L.@@ 198069
surprised 198041
Fran@@ 197980
—@@ 197944
letes 197850
rench 197820
alumni 197788
cardi@@ 197759
exterior 197700
thly 197689
Ron@@ 197670
renow@@ 197657
voted 197597
Rest@@ 197588
ouring 197563
abad 197469
eps 197393
ö@@ 197389
Nov. 197371
Hey 197331
apti@@ 197314
Beg@@ 197289
Navy 197287
Administr@@ 197256
Raj@@ 197223
't 197039
MB 197007
ationally 196982
munic@@ 196871
declared 196868
moist@@ 196805
%@@ 196717
roots 196687
wed@@ 196602
financing 196561
block@@ 196557
30pm 196539
jects 196516
crucial 196508
Dark 196496
developments 196423
​@@ 196421
celebrated 196391
employers 196346
CP 196345
lens 196276
nursing 196255
Staff 196227
commonly 196069
Client 196047
enabled 196044
Lab 195947
alition 195907
Halloween 195873
Tennessee 195868
Summit 195803
Represent@@ 195800
comply 195790
complaint 195768
Arc@@ 195704
Reserve 195663
zens 195662
Town@@ 195618
friend@@ 195579
sectors 195570
refresh@@ 195515
contractors 195514
Q. 195499
Things 195461
Lincoln 195240
Down 195161
tutorial 195153
е 195130
computers 195050
Low@@ 195045
Leadership 195031
Culture 195003
cement 195000
uled 194987
Sust@@ 194836
bills 194751
smartphone 194710
rever@@ 194662
traveling 194621
Core 194606
tradem@@ 194604
loaded 194601
chester 194591
zzle 194513
Peace 194504
Conf@@ 194476
eaway 194455
Book@@ 194451
Roman 194361
Sound 194357
tradi@@ 194204
locks 194195
Hear@@ 194167
Valent@@ 194160
import@@ 194151
Fro@@ 194033
cooked 193961
Located 193913
olic 193872
targets 193871
Particip@@ 193867
Clean 193796
Jan. 193756
Without 193742
vid@@ 193736
Missouri 193593
Rece@@ 193570
^ 193530
Related 193323
elson 193213
rd 193196
curren@@ 193158
Brand 193130
lem 193094
talented 193050
5,000 193010
Ali@@ 192963
agre@@ 192956
fraud 192941
sustain@@ 192930
ogn@@ 192900
Primary 192810
Writing 192687
grow@@ 192681
Anyone 192645
laid 192619
credits 192492
dreams 192460
ION 192443
innov@@ 192439
Cook 192437
brilliant 192430
ishop 192318
Parliament 192158
inspec@@ 192125
engaging 192005
pulled 191976
Player 191960
bran@@ 191960
>@@ 191954
scape 191883
Alexander 191762
stuck 191749
Galaxy 191719
interviews 191657
Emp@@ 191535
Veg@@ 191519
spok@@ 191467
Fresh 191445
Muslim 191381
erals 191377
heav@@ 191341
Questions 191314
courtesy 191265
Foo@@ 191251
”@@ 191210
Title 191175
Discover 191101
Liter@@ 190808
Long@@ 190802
gn@@ 190746
Arm@@ 190745
expanded 190538
ital 190521
enous 190496
inging 190380
describes 190304
ague 190292
Caf@@ 190291
Highway 190236
Stop 190206
highlights 189982
gir@@ 189919
ister 189918
Pain@@ 189914
releases 189782
scoring 189617
echan@@ 189419
Companies 189357
Print 189239
awa@@ 189068
agreements 189062
Thank@@ 189055
Catal@@ 188966
Better 188952
ret 188926
Sky 188904
Feb. 188883
individ@@ 188861
chang@@ 188834
abling 188757
Door 188740
inet 188721
wondering 188594
elop@@ 188522
Side 188505
Bitcoin 188482
discussions 188452
’t 188326
Kel@@ 188248
Gover@@ 188233
engines 188151
ionship 188098
lowing 188068
origin@@ 187908
cover@@ 187860
objectives 187715
Residential 187624
absol@@ 187619
juana 187601
lifetime 187390
Comments 187314
Build 187296
Chamber 187245
Paren@@ 187183
atically 187115
ourn@@ 187037
depen@@ 186840
invest@@ 186836
Introduc@@ 186737
icy 186701
yright 186645
Contrac@@ 186503
Register 186392
Entertainment 186372
Motor@@ 186281
losses 186077
ford@@ 185889
icken 185850
ety 185833
equip@@ 185818
loads 185785
strict 185663
Ask 185589
atin 185440
Castle 185307
Definition 185001
Defense 184965
You@@ 184876
sought 184856
anal@@ 184823
ug 184513
Academ@@ 184362
believ@@ 184038
legisl@@ 183988
alleged 183889
Priv@@ 183789
ashion 183691
cooper@@ 183631
nd 183604
Bathroom 183513
shoo@@ 183363
earnings 183334
possi@@ 183260
ratings 183059
mart@@ 183003
� 181758
Dig@@ 181694
completing 181480
chil@@ 181398
Shipping 181339
expen@@ 181334
itten 181160
alised 181139
Wom@@ 181081
doub@@ 181073
с@@ 180978
apart@@ 180974
locally 180931
ween 180746
Trail 180676
centr@@ 180670
vs. 180505
tru@@ 180180
liqu@@ 179886
https://www.@@ 179760
Directors 179485
Apply 179468
Much 179222
opin@@ 179046
tern@@ 178840
nes@@ 178577
stra@@ 178432
Resour@@ 178343
tee 177987
Currently 177883
issu@@ 177791
cust@@ 177636
Mex@@ 177606
thday 176911
compan@@ 176854
utive 176721
Hen@@ 176157
retary 176149
atic@@ 175841
leng@@ 175756
ortation 175744
utri@@ 175499
Prof@@ 175281
icking 175158
Cham@@ 174438
í@@ 173861
Let@@ 173795
umber 173591
yle 173330
org 172970
arded 172639
D.C. 172513
Congratulations 172498
ó@@ 172392
notic@@ 172239
gin@@ 172013
unning 171847
tigh@@ 171711
reduc@@ 171669
Ox@@ 171401
Invest@@ 171372
isco 171173
health@@ 171099
cription 170929
recommend@@ 170902
ape 170732
arre@@ 169708
til 169544
Tickets 169520
Olymp@@ 169450
″ 169398
pers@@ 169318
Radi@@ 169255
batter@@ 169080
idence 168980
adver@@ 168498
fant@@ 167919
belie@@ 167708
ria 167708
allow@@ 167419
agged 167417
<@@ 167218
princi@@ 167205
emporary 167001
ubs 166888
sian 166795
paren@@ 166288
reless 166202
big@@ 165382
Tex@@ 165292
peti@@ 165028
amme 164925
haps 164565
upd@@ 164538
fair@@ 164182
anging 164090
coo@@ 163811
prom@@ 163525
fem@@ 163490
Sept. 163164
Steph@@ 163161
° 162772
Gol@@ 162397
DV@@ 162376
convers@@ 162085
depos@@ 161973
lux@@ 161839
stered 161570
oles@@ 161335
call@@ 160520
grou@@ 160285
architec@@ 160116
fif@@ 160106
kr@@ 159959
chap@@ 159956
Templ@@ 159699
reason@@ 159492
Mrs. 159345
oto 159040
noon 159026
spea@@ 158691
Inc@@ 158338
sin 158248
aran@@ 158147
cris@@ 158123
ket@@ 158077
maj@@ 157985
roun@@ 157880
organis@@ 157745
profession@@ 157629
agement 157527
elines 157483
employ@@ 157456
recomm@@ 156902
edom 156714
Ari@@ 156554
Republ@@ 156358
youn@@ 156309
р@@ 156054
i.@@ 155944
busin@@ 155708
princ@@ 155334
dra@@ 155223
univer@@ 154889
wonder@@ 154785
symp@@ 154733
simil@@ 154625
unities 154465
{ 154317
ques 154215
unte@@ 154123
]@@ 153651
fortun@@ 153381
crete 153279
gage 152855
Jes@@ 152584
agram 152432
incredi@@ 152099
iP@@ 151624
vities 151170
armac@@ 150952
concer@@ 150858
ni 150242
Studi@@ 150197
mob@@ 149993
assist@@ 149877
certain@@ 149834
everal 149787
rom 149669
€@@ 149545
estiv@@ 149443
Carol@@ 149294
atio 149218
nament 149107
sia 148936
partic@@ 148658
rele@@ 148627
utions 148596
essment 148505
Mob@@ 148304
challeng@@ 148073
ivers@@ 147681
poses 146968
func@@ 146791
…@@ 146782
obj@@ 146651
mater@@ 145405
Willi@@ 145311
uries 145305
ѕ@@ 145214
surroun@@ 145122
typ@@ 144990
dynam@@ 144713
Ide@@ 144705
asks 144514
scienti@@ 144513
alth@@ 144338
weap@@ 144263
lap@@ 144126
` 144096
ergy 144027
stud@@ 143924
riage 143901
anese 143376
mary 143115
lions 143001
prep@@ 142743
improv@@ 142541
raz@@ 142503
gress 142435
aller 142275
uary 141700
Flor@@ 141640
gest 141406
Enter@@ 140612
‘@@ 140364
sco@@ 140252
Proper@@ 140021
tenance 139980
neighbor@@ 139944
ords 139942
`@@ 139864
sugges@@ 139367
earch@@ 139313
ember 139160
sensi@@ 139140
appropri@@ 139121
Happ@@ 139120
isc@@ 139047
print@@ 138338
estic 138311
cuit 138194
point@@ 138043
Roy@@ 137999
research@@ 137951
yond 137938
utting 137595
Elec@@ 136899
Wash@@ 136027
East@@ 135940
targ@@ 135927
isode 135853
institu@@ 135849
Offic@@ 135501
eared 135145
noc@@ 135099
lar 135094
essions 135002
Cath@@ 134358
idays 133943
adium 133798
iously 133796
partment 133596
Tenn@@ 133532
ñ@@ 133483
aughter 133397
adverti@@ 133311
ocolate 133303
demon@@ 133224
reci@@ 133117
Tot@@ 132649
tren@@ 132636
intage 132604
Victor@@ 132598
Braz@@ 132533
ansas 132181
phere 132167
ancer 132008
igan 131955
circ@@ 131827
Ric@@ 131544
icul@@ 131460
overy 131083
è@@ 131040
lim 131023
b. 130740
clos@@ 130679
Bit@@ 130495
ightly 130371
writ@@ 130196
§ 129385
fal@@ 129172
coup@@ 129096
Assist@@ 129058
iver 128965
ä@@ 128439
transi@@ 128255
event@@ 128017
ustries 127380
gia 127108
achi@@ 127091
prac@@ 127084
urs@@ 126991
tations 126489
Ale@@ 126421
prise 126166
Americ@@ 126045
achers 125920
reas@@ 125685
excep@@ 125341
rement 124887
statis@@ 123493
commod@@ 123484
quick@@ 123379
Atl@@ 123031
havi@@ 122830
Dani@@ 122593
prene@@ 122530
d. 122405
bership 122124
itual 121674
Â 121644
Eg@@ 121641
manag@@ 121543
Lead@@ 121112
Niger@@ 121061
Scot@@ 120563
´@@ 120242
polic@@ 120096
world@@ 119773
Ci@@ 119442
Wis@@ 118936
acknow@@ 118549
rick 118531
Penn@@ 118470
signific@@ 118408
appear@@ 118118
access@@ 118009
prote@@ 117852
Seas@@ 117746
neg@@ 117673
turers 117613
​ 117160
nia 116989
antic 116943
deliver@@ 116840
mini@@ 116572
actu@@ 116464
abase 116226
echn@@ 115897
tiz@@ 115859
aud 115834
Chair@@ 115762
&apos;@@ 115601
Egyp@@ 115319
eum 115140
Vide@@ 115007
acity 114844
elig@@ 114596
conflic@@ 114246
Innov@@ 114235
appoint@@ 113971
Satur@@ 113879
lead@@ 113447
util@@ 113368
ulous 113361
progr@@ 113215
Defin@@ 113140
rit 112896
Mich@@ 112804
albu@@ 112770
warran@@ 112691
ingredi@@ 112690
your@@ 112646
ief 112446
ospit@@ 112176
atever 112150
Amaz@@ 111509
dang@@ 110928
fail@@ 110431
ocr@@ 110261
resp@@ 110019
fran@@ 108900
smart@@ 108761
Cust@@ 108701
ā@@ 108429
usin@@ 108376
idden 107285
erous 106752
ilit@@ 105998
iversary 105997
gor@@ 105713
reng@@ 105073
sugg@@ 104879
endar 104825
Discus@@ 104550
amework 103935
conven@@ 103705
gif@@ 103345
anted 103334
Sour@@ 103211
tern 103098
volunte@@ 102946
Are@@ 102773
« 102709
favour@@ 102033
ount 101997
iday 101671
flic@@ 101614
success@@ 101166
occ@@ 101119
Chall@@ 101026
deter@@ 100915
×@@ 100758
ould 100616
guit@@ 100477
🙂 100316
®@@ 100258
ainst 100186
oughout 100033
plug@@ 99868
dish@@ 99543
accord@@ 99531
etings 99322
estyle 99251
Fig@@ 99109
stems 98733
Chin@@ 98576
elop 98184
incre@@ 98083
thes 98049
sities 97994
aul 97886
risti@@ 97239
Brit@@ 96970
perman@@ 96904
icient 96893
compreh@@ 96470
forcement 96187
organ 96070
extrem@@ 95901
ourney 95559
Pak@@ 95403
uter 95143
Professi@@ 95094
ç@@ 95083
ific 95031
agno@@ 95016
ѕ 94944
Perform@@ 94934
ilies 94856
conveni@@ 94849
illu@@ 94846
ocol@@ 94561
pub@@ 94251
other@@ 94217
etion 94159
oose 93733
ucc@@ 93469
ktop 92990
anta 92883
uclear 92747
complet@@ 92714
ternal 92472
consid@@ 92452
evision 92216
Lear@@ 92049
liament 91945
rying 91633
approv@@ 91404
ysis 91169
у@@ 90803
Pac@@ 90738
Tic@@ 90405
Wed@@ 90138
alth 90095
― 89964
compati@@ 89953
utation 89794
rastructure 89697
though@@ 89673
newsp@@ 89489
ld 88806
\ 88665
atings 88553
compens@@ 88147
igin@@ 87772
ondary 87353
syl@@ 86997
fordable 86883
treat@@ 86507
Philipp@@ 86494
Exec@@ 86460
Bath@@ 86352
Repres@@ 86306
sung 86219
accor@@ 85860
itely 85717
eases 85634
concep@@ 85609
™@@ 85608
½ 85442
help@@ 85323
Experi@@ 84852
› 84581
Word@@ 84559
Alli@@ 84505
accessi@@ 84484
terior 84367
vide@@ 84344
@@ 84238
uggl@@ 84165
esday 83442
perior 83331
eleg@@ 83242
news@@ 83067
Geor@@ 83059
Afr@@ 82828
Ira@@ 82815
life@@ 82704
Austr@@ 82423
ketball 82282
coff@@ 82161
ourth 81800
ilities 81758
cohol 81661
prepar@@ 81305
esterday 81191
versity 81102
『 80924
relev@@ 80613
approxim@@ 80423
campa@@ 80309
itoring 80014
osoph@@ 79870
strateg@@ 79258
urity 78810
sists 78763
xi@@ 78712
ois 78694
Malay@@ 78613
^@@ 78607
Ship@@ 78514
www@@ 78389
wom@@ 78242
hind 78169
ucle@@ 78139
areness 77878
FRE@@ 77798
traff@@ 77770
toil@@ 77308
feat@@ 77203
orrow 77154
gan@@ 76729
ectives 76586
utely 76582
lywood 76566
expan@@ 76145
ego 76016
→ 75955
Cred@@ 75918
Tube 75859
Cali@@ 75745
isions 75447
angu@@ 75137
Ital@@ 75052
imming 74967
mission@@ 74872
Classi@@ 74842
df 74464
tters 74317
aught 74263
Agr@@ 74193
hael 74012
tled 73529
Lew@@ 73378
selves 73238
t. 73128
sibility 73118
guid@@ 72989
umni 72763
Sci@@ 72682
exper@@ 72499
tained 72447
cerem@@ 72263
′ 71726
ο@@ 71673
yland 71461
Canadi@@ 70649
terns 70570
hus@@ 70158
const@@ 70150
choo@@ 70082
blems 70009
templ@@ 69780
advant@@ 69534
Palest@@ 69425
Perf@@ 69120
tball 68727
vil 68484
ilst 68230
bourne 68160
represent@@ 68128
Viet@@ 67744
pects 67409
Color@@ 67380
circum@@ 67090
folio 67025
indu@@ 66833
chair@@ 66716
Curren@@ 66626
disci@@ 66589
и@@ 66509
× 66460
won@@ 66352
HER@@ 66317
ayl@@ 66299
famili@@ 66087
quir@@ 65946
enth@@ 65774
н@@ 65534
Dub@@ 65063
iddle 64404
ardless 64401
Accor@@ 64336
circumst@@ 64257
Stud@@ 63905
nam 63828
ooden 63759
′@@ 63642
iversity 63630
Centr@@ 63071
actly 63006
Certif@@ 62534
adem@@ 62533
asher 62302
¡ 62208
faction 62118
arden 61973
offici@@ 61511
SQ@@ 61063
enge 60441
effor@@ 60391
Diff@@ 60381
Grad@@ 60091
ularly 60074
timately 59421
„ 59332
“@@ 59135
him@@ 58122
resour@@ 58036
о 57594
etes 57559
entioned 57319
atmos@@ 57243
lars 56845
offic@@ 56799
auce 56549
Agre@@ 56535
duce 56259
¿ 56029
axy 55745
geous 55503
т@@ 55309
isition 55200
inets 54432
otel 54174
² 53882
function@@ 53542
Engl@@ 53424
preme 53381
у 52957
toms 52532
itec@@ 52529
ativ@@ 52149
ailability 52142
ô@@ 51993
á 51927
в@@ 51913
tish 51832
iques 51643
usi@@ 51578
à 51563
Anal@@ 51215
ival@@ 51079
gratulations 50813
Langu@@ 50752
‚ 50565
ephone 50410
//@@ 50316
ø@@ 50163
Span@@ 50127
madeupword0000 0
madeupword0001 0
madeupword0002 0
madeupword0003 0
madeupword0004 0
madeupword0005 0
